unsigned char example_quant_tflite[] = {
  0x20, 0x00, 0x00, 0x00, 0x54, 0x46, 0x4c, 0x33, 0x00, 0x00, 0x00, 0x00,
  0x14, 0x00, 0x20, 0x00, 0x1c, 0x00, 0x18, 0x00, 0x14, 0x00, 0x10, 0x00,
  0x0c, 0x00, 0x00, 0x00, 0x08, 0x00, 0x04, 0x00, 0x14, 0x00, 0x00, 0x00,
  0x1c, 0x00, 0x00, 0x00, 0xbc, 0x00, 0x00, 0x00, 0x0c, 0x01, 0x00, 0x00,
  0x68, 0x2a, 0x00, 0x00, 0x78, 0x2a, 0x00, 0x00, 0x58, 0x79, 0x00, 0x00,
  0x03, 0x00, 0x00, 0x00, 0x01, 0x00, 0x00, 0x00, 0x04, 0x00, 0x00, 0x00,
  0xfa, 0xc8, 0xff, 0xff, 0x0c, 0x00, 0x00, 0x00, 0x1c, 0x00, 0x00, 0x00,
  0x5c, 0x00, 0x00, 0x00, 0x0f, 0x00, 0x00, 0x00, 0x73, 0x65, 0x72, 0x76,
  0x69, 0x6e, 0x67, 0x5f, 0x64, 0x65, 0x66, 0x61, 0x75, 0x6c, 0x74, 0x00,
  0x02, 0x00, 0x00, 0x00, 0x24, 0x00, 0x00, 0x00, 0x04, 0x00, 0x00, 0x00,
  0x04, 0xcd, 0xff, 0xff, 0x60, 0x00, 0x00, 0x00, 0x04, 0x00, 0x00, 0x00,
  0x08, 0x00, 0x00, 0x00, 0x6f, 0x75, 0x74, 0x70, 0x75, 0x74, 0x5f, 0x31,
  0x00, 0x00, 0x00, 0x00, 0x20, 0xcd, 0xff, 0xff, 0x5f, 0x00, 0x00, 0x00,
  0x04, 0x00, 0x00, 0x00, 0x08, 0x00, 0x00, 0x00, 0x6f, 0x75, 0x74, 0x70,
  0x75, 0x74, 0x5f, 0x30, 0x00, 0x00, 0x00, 0x00, 0x02, 0x00, 0x00, 0x00,
  0x1c, 0x00, 0x00, 0x00, 0x04, 0x00, 0x00, 0x00, 0x48, 0xcd, 0xff, 0xff,
  0x01, 0x00, 0x00, 0x00, 0x04, 0x00, 0x00, 0x00, 0x01, 0x00, 0x00, 0x00,
  0x68, 0x00, 0x00, 0x00, 0x3a, 0xc9, 0xff, 0xff, 0x04, 0x00, 0x00, 0x00,
  0x04, 0x00, 0x00, 0x00, 0x64, 0x61, 0x74, 0x61, 0x00, 0x00, 0x00, 0x00,
  0x02, 0x00, 0x00, 0x00, 0x2c, 0x00, 0x00, 0x00, 0x04, 0x00, 0x00, 0x00,
  0x7c, 0xcd, 0xff, 0xff, 0x63, 0x00, 0x00, 0x00, 0x04, 0x00, 0x00, 0x00,
  0x13, 0x00, 0x00, 0x00, 0x43, 0x4f, 0x4e, 0x56, 0x45, 0x52, 0x53, 0x49,
  0x4f, 0x4e, 0x5f, 0x4d, 0x45, 0x54, 0x41, 0x44, 0x41, 0x54, 0x41, 0x00,
  0xa0, 0xcd, 0xff, 0xff, 0x62, 0x00, 0x00, 0x00, 0x04, 0x00, 0x00, 0x00,
  0x13, 0x00, 0x00, 0x00, 0x6d, 0x69, 0x6e, 0x5f, 0x72, 0x75, 0x6e, 0x74,
  0x69, 0x6d, 0x65, 0x5f, 0x76, 0x65, 0x72, 0x73, 0x69, 0x6f, 0x6e, 0x00,
  0x64, 0x00, 0x00, 0x00, 0x58, 0x29, 0x00, 0x00, 0x50, 0x29, 0x00, 0x00,
  0x48, 0x29, 0x00, 0x00, 0x34, 0x29, 0x00, 0x00, 0x20, 0x29, 0x00, 0x00,
  0x0c, 0x29, 0x00, 0x00, 0x04, 0x29, 0x00, 0x00, 0xf0, 0x28, 0x00, 0x00,
  0xd4, 0x28, 0x00, 0x00, 0xb8, 0x28, 0x00, 0x00, 0xa4, 0x28, 0x00, 0x00,
  0x88, 0x28, 0x00, 0x00, 0x70, 0x28, 0x00, 0x00, 0x58, 0x28, 0x00, 0x00,
  0x40, 0x28, 0x00, 0x00, 0x28, 0x28, 0x00, 0x00, 0x10, 0x28, 0x00, 0x00,
  0xf8, 0x27, 0x00, 0x00, 0xe4, 0x27, 0x00, 0x00, 0x98, 0x27, 0x00, 0x00,
  0x48, 0x21, 0x00, 0x00, 0xf8, 0x1a, 0x00, 0x00, 0x98, 0x1a, 0x00, 0x00,
  0x48, 0x14, 0x00, 0x00, 0xb8, 0x07, 0x00, 0x00, 0xf8, 0x02, 0x00, 0x00,
  0xf0, 0x02, 0x00, 0x00, 0xcc, 0x02, 0x00, 0x00, 0xc4, 0x02, 0x00, 0x00,
  0xbc, 0x02, 0x00, 0x00, 0xb4, 0x02, 0x00, 0x00, 0xac, 0x02, 0x00, 0x00,
  0xa4, 0x02, 0x00, 0x00, 0x9c, 0x02, 0x00, 0x00, 0x94, 0x02, 0x00, 0x00,
  0x8c, 0x02, 0x00, 0x00, 0x84, 0x02, 0x00, 0x00, 0x7c, 0x02, 0x00, 0x00,
  0x74, 0x02, 0x00, 0x00, 0x6c, 0x02, 0x00, 0x00, 0x64, 0x02, 0x00, 0x00,
  0x5c, 0x02, 0x00, 0x00, 0x54, 0x02, 0x00, 0x00, 0x4c, 0x02, 0x00, 0x00,
  0x44, 0x02, 0x00, 0x00, 0x3c, 0x02, 0x00, 0x00, 0x34, 0x02, 0x00, 0x00,
  0x2c, 0x02, 0x00, 0x00, 0x24, 0x02, 0x00, 0x00, 0x1c, 0x02, 0x00, 0x00,
  0x14, 0x02, 0x00, 0x00, 0x0c, 0x02, 0x00, 0x00, 0x04, 0x02, 0x00, 0x00,
  0xfc, 0x01, 0x00, 0x00, 0xf4, 0x01, 0x00, 0x00, 0xec, 0x01, 0x00, 0x00,
  0xe4, 0x01, 0x00, 0x00, 0xdc, 0x01, 0x00, 0x00, 0xd4, 0x01, 0x00, 0x00,
  0xcc, 0x01, 0x00, 0x00, 0xc4, 0x01, 0x00, 0x00, 0xbc, 0x01, 0x00, 0x00,
  0xb4, 0x01, 0x00, 0x00, 0xac, 0x01, 0x00, 0x00, 0xa4, 0x01, 0x00, 0x00,
  0x9c, 0x01, 0x00, 0x00, 0x94, 0x01, 0x00, 0x00, 0x8c, 0x01, 0x00, 0x00,
  0x84, 0x01, 0x00, 0x00, 0x7c, 0x01, 0x00, 0x00, 0x74, 0x01, 0x00, 0x00,
  0x6c, 0x01, 0x00, 0x00, 0x64, 0x01, 0x00, 0x00, 0x5c, 0x01, 0x00, 0x00,
  0x54, 0x01, 0x00, 0x00, 0x4c, 0x01, 0x00, 0x00, 0x44, 0x01, 0x00, 0x00,
  0x3c, 0x01, 0x00, 0x00, 0x34, 0x01, 0x00, 0x00, 0x2c, 0x01, 0x00, 0x00,
  0x24, 0x01, 0x00, 0x00, 0x1c, 0x01, 0x00, 0x00, 0x14, 0x01, 0x00, 0x00,
  0x0c, 0x01, 0x00, 0x00, 0x04, 0x01, 0x00, 0x00, 0xfc, 0x00, 0x00, 0x00,
  0xf4, 0x00, 0x00, 0x00, 0xec, 0x00, 0x00, 0x00, 0xe4, 0x00, 0x00, 0x00,
  0xdc, 0x00, 0x00, 0x00, 0xd4, 0x00, 0x00, 0x00, 0xcc, 0x00, 0x00, 0x00,
  0xc4, 0x00, 0x00, 0x00, 0xbc, 0x00, 0x00, 0x00, 0xb4, 0x00, 0x00, 0x00,
  0xac, 0x00, 0x00, 0x00, 0xa4, 0x00, 0x00, 0x00, 0x9c, 0x00, 0x00, 0x00,
  0x7c, 0x00, 0x00, 0x00, 0x04, 0x00, 0x00, 0x00, 0x36, 0xcb, 0xff, 0xff,
  0x04, 0x00, 0x00, 0x00, 0x68, 0x00, 0x00, 0x00, 0x0c, 0x00, 0x00, 0x00,
  0x08, 0x00, 0x0e, 0x00, 0x08, 0x00, 0x04, 0x00, 0x08, 0x00, 0x00, 0x00,
  0x14, 0x00, 0x00, 0x00, 0x30, 0x00, 0x00, 0x00, 0x00, 0x00, 0x0a, 0x00,
  0x0c, 0x00, 0x08, 0x00, 0x00, 0x00, 0x07, 0x00, 0x0a, 0x00, 0x00, 0x00,
  0x00, 0x00, 0x00, 0x01, 0x04, 0x00, 0x00, 0x00, 0x01, 0x00, 0x00, 0x00,
  0xeb, 0x03, 0x00, 0x00, 0x0c, 0x00, 0x18, 0x00, 0x14, 0x00, 0x10, 0x00,
  0x0c, 0x00, 0x04, 0x00, 0x0c, 0x00, 0x00, 0x00, 0x67, 0xb6, 0x45, 0x79,
  0xf8, 0x85, 0x95, 0xc3, 0x02, 0x00, 0x00, 0x00, 0x02, 0x00, 0x00, 0x00,
  0x04, 0x00, 0x00, 0x00, 0x06, 0x00, 0x00, 0x00, 0x32, 0x2e, 0x32, 0x30,
  0x2e, 0x30, 0x00, 0x00, 0xaa, 0xcb, 0xff, 0xff, 0x04, 0x00, 0x00, 0x00,
  0x10, 0x00, 0x00, 0x00, 0x31, 0x2e, 0x31, 0x34, 0x2e, 0x30, 0x00, 0x00,
  0x00, 0x00, 0x00, 0x00, 0x00, 0x00, 0x00, 0x00, 0x04, 0x8b, 0xff, 0xff,
  0x08, 0x8b, 0xff, 0xff, 0x0c, 0x8b, 0xff, 0xff, 0x10, 0x8b, 0xff, 0xff,
  0x14, 0x8b, 0xff, 0xff, 0x18, 0x8b, 0xff, 0xff, 0x1c, 0x8b, 0xff, 0xff,
  0x20, 0x8b, 0xff, 0xff, 0x24, 0x8b, 0xff, 0xff, 0x28, 0x8b, 0xff, 0xff,
  0x2c, 0x8b, 0xff, 0xff, 0x30, 0x8b, 0xff, 0xff, 0x34, 0x8b, 0xff, 0xff,
  0x38, 0x8b, 0xff, 0xff, 0x3c, 0x8b, 0xff, 0xff, 0x40, 0x8b, 0xff, 0xff,
  0x44, 0x8b, 0xff, 0xff, 0x48, 0x8b, 0xff, 0xff, 0x4c, 0x8b, 0xff, 0xff,
  0x50, 0x8b, 0xff, 0xff, 0x54, 0x8b, 0xff, 0xff, 0x58, 0x8b, 0xff, 0xff,
  0x5c, 0x8b, 0xff, 0xff, 0x60, 0x8b, 0xff, 0xff, 0x64, 0x8b, 0xff, 0xff,
  0x68, 0x8b, 0xff, 0xff, 0x6c, 0x8b, 0xff, 0xff, 0x70, 0x8b, 0xff, 0xff,
  0x74, 0x8b, 0xff, 0xff, 0x78, 0x8b, 0xff, 0xff, 0x7c, 0x8b, 0xff, 0xff,
  0x80, 0x8b, 0xff, 0xff, 0x84, 0x8b, 0xff, 0xff, 0x88, 0x8b, 0xff, 0xff,
  0x8c, 0x8b, 0xff, 0xff, 0x90, 0x8b, 0xff, 0xff, 0x94, 0x8b, 0xff, 0xff,
  0x98, 0x8b, 0xff, 0xff, 0x9c, 0x8b, 0xff, 0xff, 0xa0, 0x8b, 0xff, 0xff,
  0xa4, 0x8b, 0xff, 0xff, 0xa8, 0x8b, 0xff, 0xff, 0xac, 0x8b, 0xff, 0xff,
  0xb0, 0x8b, 0xff, 0xff, 0xb4, 0x8b, 0xff, 0xff, 0xb8, 0x8b, 0xff, 0xff,
  0xbc, 0x8b, 0xff, 0xff, 0xc0, 0x8b, 0xff, 0xff, 0xc4, 0x8b, 0xff, 0xff,
  0xc8, 0x8b, 0xff, 0xff, 0xcc, 0x8b, 0xff, 0xff, 0xd0, 0x8b, 0xff, 0xff,
  0xd4, 0x8b, 0xff, 0xff, 0xd8, 0x8b, 0xff, 0xff, 0xdc, 0x8b, 0xff, 0xff,
  0xe0, 0x8b, 0xff, 0xff, 0xe4, 0x8b, 0xff, 0xff, 0xe8, 0x8b, 0xff, 0xff,
  0xec, 0x8b, 0xff, 0xff, 0xf0, 0x8b, 0xff, 0xff, 0xf4, 0x8b, 0xff, 0xff,
  0xf8, 0x8b, 0xff, 0xff, 0xfc, 0x8b, 0xff, 0xff, 0x00, 0x8c, 0xff, 0xff,
  0x04, 0x8c, 0xff, 0xff, 0x08, 0x8c, 0xff, 0xff, 0x0c, 0x8c, 0xff, 0xff,
  0x10, 0x8c, 0xff, 0xff, 0x14, 0x8c, 0xff, 0xff, 0x18, 0x8c, 0xff, 0xff,
  0xde, 0xcc, 0xff, 0xff, 0x04, 0x00, 0x00, 0x00, 0x14, 0x00, 0x00, 0x00,
  0xf5, 0xc7, 0x23, 0x91, 0x50, 0xc5, 0xa0, 0x61, 0x7f, 0x0c, 0x42, 0xb7,
  0x1d, 0x2f, 0xb5, 0x0b, 0x03, 0xe2, 0x81, 0x1d, 0x3c, 0x8c, 0xff, 0xff,
  0x02, 0xcd, 0xff, 0xff, 0x04, 0x00, 0x00, 0x00, 0xb0, 0x04, 0x00, 0x00,
  0x25, 0xa5, 0x8c, 0x3a, 0x0b, 0x02, 0x8d, 0x12, 0xbf, 0x7f, 0xa9, 0xbf,
  0xa4, 0x93, 0xa6, 0xe8, 0xa6, 0x4a, 0x71, 0x95, 0xc2, 0xaa, 0x27, 0x8c,
  0xae, 0x2b, 0x43, 0x97, 0x0e, 0xae, 0xfc, 0x2e, 0xa2, 0x66, 0xaf, 0x89,
  0x9c, 0xb3, 0x13, 0x09, 0xd8, 0x57, 0x3f, 0x71, 0xe2, 0x0c, 0x3d, 0xbc,
  0xf7, 0x68, 0x1b, 0x13, 0x6e, 0x74, 0x6a, 0xbb, 0x81, 0xa0, 0x3d, 0xbd,
  0xe7, 0x34, 0x6d, 0xa9, 0x2a, 0x47, 0xb7, 0x59, 0x73, 0x4c, 0xdc, 0xba,
  0xb3, 0xae, 0x7f, 0xb1, 0xc9, 0xb9, 0x0e, 0x15, 0x3b, 0x2e, 0x5d, 0x5f,
  0x91, 0xa0, 0x1e, 0x1a, 0x78, 0x57, 0xbe, 0x7f, 0x99, 0xa2, 0x78, 0xfa,
  0x7a, 0xad, 0x58, 0x4b, 0x91, 0xd2, 0x6e, 0xe8, 0xfc, 0x64, 0xdf, 0x0f,
  0x4d, 0x93, 0x0d, 0x53, 0x86, 0x66, 0xc6, 0x37, 0x61, 0x36, 0x4f, 0x05,
  0x99, 0x7f, 0xdb, 0x13, 0x06, 0x40, 0x64, 0xfa, 0xe2, 0x0e, 0xac, 0xdf,
  0xaa, 0xbd, 0xba, 0xdb, 0x77, 0xec, 0x9d, 0xf7, 0x10, 0x8d, 0xb7, 0x93,
  0xdb, 0x1c, 0xa0, 0x81, 0x06, 0x65, 0x3e, 0x1b, 0x7a, 0x6c, 0xb8, 0x26,
  0xda, 0xd8, 0x84, 0x04, 0x5a, 0x30, 0x44, 0xb2, 0xc7, 0xc9, 0x22, 0xe7,
  0xd2, 0xf7, 0x95, 0x7f, 0xb5, 0xd1, 0x04, 0x52, 0xd4, 0x0c, 0x4f, 0x7f,
  0x9d, 0x67, 0xda, 0x45, 0xbb, 0xc2, 0x1b, 0x3f, 0xa3, 0xb3, 0x34, 0xc6,
  0x81, 0x21, 0xf0, 0x02, 0x47, 0x6b, 0xe6, 0x4b, 0xf2, 0xfd, 0x89, 0x01,
  0x76, 0xfc, 0x8f, 0x48, 0x23, 0x2a, 0xed, 0x5a, 0x81, 0xff, 0xbb, 0xc0,
  0xc9, 0x82, 0x6f, 0x0f, 0x7e, 0xd1, 0xba, 0x27, 0xa6, 0x6f, 0xd4, 0x8e,
  0x34, 0xcc, 0x72, 0xee, 0xe2, 0x71, 0x2c, 0xc9, 0xf7, 0xb2, 0x28, 0x68,
  0xbf, 0xd8, 0xe9, 0xc9, 0x7a, 0xb8, 0xfe, 0x7f, 0xb5, 0xf6, 0x54, 0x3d,
  0xa5, 0xb6, 0x09, 0x2f, 0xdb, 0x12, 0xad, 0xfc, 0x84, 0x29, 0xf8, 0x45,
  0x95, 0xb4, 0x68, 0xa2, 0x19, 0x77, 0x12, 0xf8, 0x2e, 0x18, 0xd7, 0xfe,
  0x39, 0x45, 0x33, 0x7f, 0x42, 0x74, 0x2a, 0x2a, 0x97, 0xad, 0x22, 0x36,
  0x42, 0x2b, 0x9d, 0x2e, 0x4e, 0x0e, 0xd9, 0x9e, 0xb1, 0xeb, 0x0b, 0xeb,
  0x56, 0xb8, 0x01, 0x26, 0xc2, 0x5b, 0xd7, 0x33, 0xb5, 0x55, 0x07, 0x21,
  0x0f, 0x67, 0xc1, 0x05, 0x1d, 0x11, 0x7f, 0x8b, 0xfa, 0x9d, 0x4a, 0x2a,
  0xd8, 0x4d, 0xcb, 0x7c, 0xf0, 0xbc, 0x53, 0xd6, 0x94, 0xfa, 0x56, 0x40,
  0x5a, 0xcf, 0xe4, 0xc7, 0x71, 0xd4, 0x9a, 0xe2, 0x10, 0x84, 0xd4, 0x59,
  0xed, 0x3c, 0x2b, 0x42, 0x85, 0x00, 0x56, 0x4a, 0xd7, 0x26, 0xa8, 0x7f,
  0xb5, 0x0f, 0x20, 0x11, 0x10, 0x81, 0x95, 0x12, 0x75, 0x90, 0xf0, 0x24,
  0xbe, 0xc9, 0x03, 0x3e, 0x01, 0x0e, 0xa5, 0x43, 0x62, 0xbe, 0xb7, 0x90,
  0x98, 0x71, 0xb8, 0x52, 0xa3, 0x69, 0x16, 0xdc, 0x55, 0xc7, 0x65, 0xd6,
  0xfd, 0x89, 0xea, 0x20, 0x2b, 0xee, 0x81, 0xc7, 0xf1, 0xf2, 0xca, 0xdb,
  0xd4, 0x82, 0x3b, 0x78, 0x41, 0xc8, 0xe2, 0x86, 0xa4, 0xee, 0x33, 0x26,
  0x08, 0x03, 0x3f, 0x5c, 0xc6, 0x09, 0xc4, 0x90, 0x83, 0xc8, 0x0c, 0x3d,
  0x3d, 0xee, 0x9e, 0xd6, 0x62, 0xcb, 0x28, 0x07, 0x81, 0x76, 0x08, 0x8d,
  0x9a, 0x1d, 0x52, 0xd6, 0x8d, 0xab, 0xa6, 0xc7, 0x0c, 0x75, 0x45, 0x66,
  0xf6, 0xf0, 0x5b, 0xf7, 0xb2, 0x28, 0x6d, 0x4a, 0x6b, 0xe2, 0xd7, 0x41,
  0xf3, 0x7b, 0x5d, 0x5f, 0xfa, 0xca, 0xfa, 0x53, 0x7f, 0xcc, 0xd7, 0x8f,
  0xfa, 0x12, 0x92, 0x37, 0x85, 0xfb, 0xbe, 0xe7, 0x32, 0x02, 0x77, 0xda,
  0xb2, 0x02, 0xfc, 0xd3, 0xc8, 0xca, 0xcf, 0x8e, 0xcf, 0x99, 0x7b, 0x7f,
  0xb9, 0xdb, 0x98, 0x28, 0xe4, 0x2c, 0x14, 0x8d, 0x4a, 0x33, 0xf3, 0xf3,
  0x9c, 0x7c, 0x0e, 0x86, 0xb2, 0x71, 0xfc, 0x29, 0x7f, 0x38, 0xb2, 0xa7,
  0x94, 0x51, 0xa8, 0x3d, 0x23, 0xdf, 0xd2, 0xd7, 0x94, 0x86, 0x8b, 0xb8,
  0x81, 0xa0, 0x6d, 0x99, 0xdf, 0x69, 0xfb, 0x92, 0x1c, 0x7f, 0xbd, 0x66,
  0x54, 0xc6, 0x10, 0x9d, 0xfd, 0x2b, 0x83, 0x1f, 0x4d, 0x42, 0x92, 0x8e,
  0x25, 0x0f, 0x6c, 0x0e, 0x4f, 0xdd, 0x9d, 0x10, 0x2a, 0x17, 0x9c, 0xce,
  0xa8, 0xef, 0xbb, 0x6f, 0xbb, 0x13, 0x8d, 0x12, 0xf5, 0x3a, 0xdc, 0x81,
  0x02, 0xa3, 0x85, 0xc1, 0x22, 0x59, 0xba, 0x5c, 0xff, 0x87, 0x33, 0x0d,
  0x1c, 0x38, 0x30, 0x8f, 0x3e, 0x95, 0x65, 0x61, 0xf1, 0x1e, 0xe1, 0x82,
  0x22, 0x2e, 0x9b, 0x87, 0x73, 0x1d, 0x77, 0xef, 0x7c, 0xce, 0xf0, 0xea,
  0xfd, 0xd2, 0x7f, 0x0f, 0x93, 0x60, 0x6f, 0x55, 0x92, 0x8b, 0x9a, 0x52,
  0x4a, 0xe8, 0x30, 0xd3, 0x3c, 0x82, 0xf5, 0x36, 0xd4, 0xea, 0x7f, 0x1a,
  0x9c, 0xa0, 0xc1, 0x67, 0x12, 0xdc, 0x20, 0xd6, 0xc4, 0x91, 0x64, 0xeb,
  0x24, 0x7e, 0x28, 0x2b, 0x41, 0xd6, 0x4d, 0x82, 0x75, 0x45, 0xbc, 0x7f,
  0x68, 0xdf, 0x9e, 0x21, 0x76, 0xc4, 0x92, 0x35, 0x75, 0x15, 0xac, 0x00,
  0x70, 0xcd, 0xaa, 0xe6, 0x1f, 0x9c, 0x70, 0x7d, 0xea, 0x23, 0xd5, 0x18,
  0x59, 0x8b, 0xfe, 0x2e, 0x2c, 0x08, 0x5d, 0xd4, 0x48, 0x9c, 0x58, 0x6f,
  0x97, 0xb5, 0xc9, 0x3f, 0xcf, 0x7f, 0x7a, 0xad, 0xc6, 0x88, 0x32, 0x15,
  0xa9, 0x6c, 0x82, 0xd9, 0x6e, 0x35, 0x7c, 0x24, 0x99, 0x6e, 0x45, 0x04,
  0x9b, 0x7f, 0x29, 0x1c, 0x4e, 0xea, 0x7c, 0x16, 0x1f, 0x4b, 0xe8, 0x62,
  0x66, 0x0a, 0xd7, 0xa9, 0xa3, 0xaa, 0xdf, 0x8f, 0x03, 0xd8, 0x0b, 0xb0,
  0x21, 0x75, 0x5f, 0xe7, 0x4e, 0xb8, 0x22, 0x5d, 0x0a, 0x77, 0x81, 0xf6,
  0x5e, 0x61, 0x42, 0xac, 0xfc, 0x58, 0xfc, 0x3f, 0xb8, 0x92, 0xfc, 0x2c,
  0x25, 0xfc, 0xec, 0xfb, 0x55, 0x25, 0x12, 0x4d, 0xbe, 0x81, 0xcb, 0x24,
  0xb2, 0x44, 0xa1, 0x9c, 0xe8, 0x11, 0x64, 0x12, 0xe6, 0x95, 0xff, 0x03,
  0xb8, 0x13, 0x0c, 0x81, 0x94, 0x25, 0xd8, 0x15, 0xe7, 0x2d, 0x35, 0x6a,
  0x8a, 0xcc, 0x0e, 0x40, 0x18, 0xba, 0xae, 0xaa, 0xdd, 0x29, 0x92, 0x68,
  0x81, 0xff, 0x40, 0xd1, 0x72, 0xa1, 0xff, 0x05, 0x2d, 0xe5, 0x20, 0xe4,
  0xaa, 0x69, 0x13, 0x3f, 0xb5, 0x3b, 0x4d, 0x47, 0x44, 0x31, 0x66, 0x4f,
  0x2a, 0x81, 0x81, 0x20, 0x3e, 0x9a, 0xe7, 0xa9, 0x6f, 0xf5, 0xaf, 0x11,
  0xe3, 0x3b, 0xc7, 0x37, 0x48, 0x58, 0xfb, 0x81, 0x38, 0xac, 0xef, 0xe5,
  0x4d, 0xc2, 0xaa, 0x49, 0xbe, 0x86, 0xa7, 0x90, 0x49, 0xc7, 0xf6, 0x85,
  0x3f, 0x2c, 0x5d, 0x69, 0xd1, 0x87, 0x53, 0xc0, 0x78, 0x8e, 0x76, 0x11,
  0x16, 0xb0, 0x8e, 0x06, 0x0c, 0x74, 0xc4, 0x81, 0x4a, 0xff, 0xa3, 0x12,
  0x6e, 0xe2, 0x18, 0x3d, 0x3f, 0xec, 0x49, 0x72, 0xe2, 0xff, 0x25, 0x42,
  0xbd, 0x51, 0x17, 0x3f, 0x5c, 0xbd, 0xef, 0xf7, 0x3f, 0xf4, 0xe0, 0x35,
  0xb7, 0x5e, 0xa1, 0xef, 0xca, 0x55, 0xcc, 0x15, 0xe9, 0x46, 0xee, 0x78,
  0x19, 0x90, 0xd5, 0x65, 0xb0, 0x4b, 0x15, 0x6d, 0xe0, 0xfc, 0xc9, 0x81,
  0xa3, 0x7e, 0x72, 0x4f, 0x44, 0xa9, 0xda, 0x7d, 0xe2, 0x2c, 0x1a, 0x24,
  0x6a, 0xcf, 0x1f, 0x1b, 0x6a, 0x17, 0xc4, 0xa0, 0x15, 0x89, 0xa0, 0x89,
  0x49, 0x7f, 0xcd, 0xcf, 0x1f, 0x81, 0xd4, 0x92, 0xb5, 0xa4, 0x6a, 0xae,
  0xf0, 0xeb, 0xe8, 0x3c, 0x7f, 0xaa, 0x91, 0x7f, 0x38, 0x02, 0x4d, 0x44,
  0xa4, 0x1e, 0x74, 0xfa, 0x36, 0xce, 0xf7, 0x75, 0xac, 0x7e, 0x6c, 0xb6,
  0x98, 0x59, 0x9a, 0x3b, 0x52, 0x9c, 0x9d, 0x7a, 0x21, 0x0b, 0x86, 0xf0,
  0xbd, 0x24, 0x0a, 0xc5, 0x64, 0x4f, 0xb9, 0xaf, 0x92, 0xcc, 0x96, 0xb4,
  0xc1, 0xb0, 0x35, 0x7f, 0x70, 0xdc, 0x5a, 0x65, 0x3c, 0x52, 0x9c, 0x54,
  0x04, 0xff, 0x17, 0xd8, 0x50, 0x54, 0x66, 0x99, 0xa8, 0xf2, 0xfc, 0x0f,
  0xf8, 0xca, 0x24, 0x81, 0x0a, 0x7b, 0x27, 0x20, 0x04, 0x57, 0xbb, 0xd4,
  0xb8, 0x30, 0x53, 0xb1, 0xbf, 0xb4, 0xd9, 0x24, 0x0b, 0x81, 0xa8, 0x02,
  0x1e, 0x69, 0xe0, 0x4e, 0xeb, 0x0c, 0x1b, 0xd0, 0xa3, 0xee, 0x70, 0xfd,
  0xcc, 0xdb, 0x0f, 0x76, 0x39, 0x8e, 0xee, 0x41, 0xe0, 0x81, 0x46, 0xd7,
  0xdb, 0x5e, 0xe4, 0x56, 0x9d, 0xb6, 0x7f, 0xcc, 0xf7, 0x73, 0x30, 0xf8,
  0xf0, 0xec, 0x34, 0x4f, 0x8e, 0xb5, 0xe7, 0x66, 0x73, 0xbe, 0xdf, 0x41,
  0x9b, 0xb0, 0xfb, 0xab, 0x7c, 0x87, 0x2a, 0x33, 0x5d, 0xe0, 0x8c, 0x61,
  0x0e, 0xc2, 0x88, 0xba, 0xb1, 0x1f, 0xeb, 0xc0, 0x32, 0x7f, 0x3e, 0x08,
  0xc7, 0xd2, 0x4e, 0xad, 0xed, 0x1a, 0xd0, 0xee, 0x50, 0x11, 0x69, 0x73,
  0xb4, 0x3e, 0xa4, 0x5d, 0x81, 0xa5, 0xc7, 0xc6, 0x15, 0xed, 0xf3, 0xf2,
  0x30, 0x0f, 0x21, 0x47, 0x45, 0x10, 0xb6, 0x20, 0x9c, 0xe6, 0xc1, 0xa2,
  0xbe, 0xd1, 0xff, 0xff, 0x04, 0x00, 0x00, 0x00, 0x80, 0x0c, 0x00, 0x00,
  0x10, 0xc8, 0x47, 0xb2, 0x0a, 0xd9, 0x04, 0x7e, 0x8c, 0xf3, 0xbb, 0xd9,
  0x6d, 0xec, 0x26, 0x34, 0x62, 0x71, 0xbd, 0xe1, 0xf9, 0xe7, 0xc6, 0x60,
  0x81, 0x20, 0xfa, 0xa1, 0x96, 0xe2, 0x13, 0xe8, 0xdb, 0x78, 0x37, 0x55,
  0x08, 0xbd, 0x66, 0xb3, 0x4e, 0xc2, 0x13, 0x7e, 0xc7, 0xa8, 0x34, 0xb1,
  0xb1, 0xc2, 0x5a, 0x86, 0x53, 0xe2, 0x70, 0xc8, 0x7f, 0x57, 0xac, 0x59,
  0xce, 0xf7, 0x3b, 0x50, 0xb1, 0xdf, 0x85, 0x47, 0xb5, 0x68, 0x66, 0xfb,
  0x5e, 0x64, 0xf7, 0x45, 0x4f, 0x9c, 0x3c, 0x37, 0xe6, 0x18, 0x81, 0xec,
  0x6a, 0x32, 0x54, 0x85, 0x7e, 0x35, 0xcf, 0x4c, 0x27, 0x2d, 0x87, 0xff,
  0xcd, 0x79, 0x56, 0xed, 0x0c, 0x3b, 0x1f, 0x58, 0x1a, 0xc9, 0xb9, 0xde,
  0x28, 0x89, 0x6b, 0x3d, 0x69, 0xef, 0x36, 0x8c, 0xcc, 0x41, 0x92, 0x44,
  0x59, 0x8e, 0x50, 0x00, 0x63, 0xc7, 0x5d, 0x8a, 0x0e, 0x0f, 0x47, 0x81,
  0x4a, 0xab, 0xd6, 0xed, 0xb2, 0xa0, 0x3e, 0xd0, 0x8a, 0x7f, 0x86, 0x39,
  0xd4, 0xce, 0xec, 0xfe, 0x63, 0xf5, 0xce, 0x08, 0xce, 0x70, 0xd2, 0x5e,
  0xe7, 0xe1, 0x15, 0x97, 0xfa, 0xaf, 0xc5, 0xf6, 0xa7, 0x3a, 0xfe, 0x26,
  0x72, 0xce, 0xcb, 0x00, 0xa2, 0x3a, 0xe4, 0x27, 0x65, 0xb0, 0x3e, 0x81,
  0x6b, 0x54, 0xea, 0x68, 0x1c, 0x7d, 0x43, 0xea, 0x3d, 0x92, 0xdc, 0xa6,
  0x2d, 0xfa, 0x62, 0x2b, 0x56, 0xb7, 0x9f, 0x2d, 0xb0, 0xc5, 0x84, 0x3c,
  0x0f, 0x78, 0xc0, 0xca, 0xb6, 0x7a, 0xeb, 0xf1, 0xd3, 0x2f, 0x3a, 0x6c,
  0x8e, 0x92, 0xde, 0x1a, 0x3c, 0x4e, 0x65, 0x22, 0x54, 0x5c, 0x00, 0x7c,
  0xc5, 0x7f, 0x08, 0x05, 0x50, 0x8f, 0x48, 0x53, 0xab, 0x13, 0xf1, 0xcb,
  0x99, 0x65, 0xe6, 0x02, 0x59, 0xeb, 0xe1, 0x7f, 0x30, 0xa5, 0x82, 0x24,
  0x8e, 0xf7, 0x1e, 0x14, 0xeb, 0xf1, 0xc9, 0x47, 0xa7, 0xb6, 0xaa, 0xc2,
  0x9f, 0x2e, 0x35, 0x42, 0x0a, 0xae, 0xc8, 0x7e, 0x29, 0x53, 0x33, 0xae,
  0x60, 0x49, 0x07, 0xdf, 0xf4, 0x91, 0x8f, 0x5e, 0xf6, 0xf2, 0xcb, 0x81,
  0x68, 0xd9, 0x46, 0x7f, 0xa2, 0x47, 0xed, 0x2e, 0xf9, 0x41, 0x9d, 0x8f,
  0x59, 0x79, 0x9b, 0x91, 0x7c, 0x09, 0x33, 0xc1, 0xb6, 0xb4, 0x2d, 0x24,
  0x6f, 0xc1, 0x08, 0x07, 0x6b, 0x91, 0xf0, 0xfe, 0x9f, 0x4a, 0x5a, 0x32,
  0xe6, 0xe3, 0x2a, 0x79, 0x01, 0x33, 0xb4, 0x0e, 0x73, 0xb9, 0x06, 0xac,
  0x09, 0x6f, 0x1e, 0xbd, 0x13, 0x9a, 0xde, 0x7f, 0xd5, 0x1f, 0xc2, 0xe6,
  0xba, 0xd8, 0x4d, 0x64, 0xa1, 0xe2, 0x72, 0xed, 0x6f, 0x1f, 0x39, 0x2b,
  0x2c, 0x13, 0xb7, 0xa3, 0x84, 0x7e, 0x63, 0x5d, 0xe1, 0xf1, 0xa2, 0x18,
  0xef, 0xa1, 0x5c, 0x4b, 0x62, 0x96, 0x54, 0xa8, 0x8f, 0x45, 0x3f, 0x50,
  0xf3, 0xab, 0xde, 0xc7, 0x37, 0x51, 0x8e, 0xc7, 0x2f, 0xe5, 0x63, 0x35,
  0x36, 0x7f, 0xb4, 0x1a, 0x02, 0x88, 0xc2, 0x0f, 0xa4, 0x29, 0x90, 0x0a,
  0x6a, 0x2f, 0xc9, 0x81, 0x7c, 0xfd, 0x8d, 0x3e, 0xd7, 0x96, 0x68, 0xf8,
  0xb2, 0x82, 0xbd, 0x20, 0xb1, 0x11, 0xd8, 0xdb, 0x0b, 0x06, 0x67, 0x51,
  0x3e, 0x18, 0xa9, 0xd0, 0x23, 0xe1, 0x90, 0x4b, 0x3b, 0x1a, 0x27, 0x7f,
  0x44, 0xd2, 0xc3, 0x3a, 0x84, 0xa3, 0x60, 0x98, 0xc4, 0xe2, 0xf4, 0xb4,
  0x5b, 0x26, 0x3f, 0x65, 0x05, 0x29, 0xe4, 0x23, 0x86, 0x1e, 0xdc, 0xfc,
  0xb0, 0x56, 0x2e, 0x76, 0xaa, 0x94, 0x8b, 0x77, 0x9a, 0x5d, 0xad, 0x65,
  0x0d, 0x72, 0xd7, 0x5e, 0x0f, 0x7f, 0x44, 0x79, 0x15, 0x5c, 0xb5, 0xf3,
  0x65, 0x1f, 0x65, 0x3c, 0xe9, 0x39, 0xb5, 0xce, 0x46, 0x71, 0x37, 0x72,
  0xf6, 0xe5, 0x2e, 0xa2, 0x3c, 0x7f, 0x43, 0x1b, 0xee, 0x51, 0xbc, 0x3b,
  0xb7, 0x38, 0xfd, 0xae, 0x30, 0x9e, 0x81, 0x48, 0x4c, 0xc6, 0x4c, 0xae,
  0xc8, 0x29, 0xc7, 0xbf, 0x12, 0xeb, 0x7a, 0xbc, 0xd6, 0x4d, 0x13, 0x1a,
  0x3f, 0x13, 0xa5, 0xd4, 0x19, 0xd6, 0x45, 0xa6, 0x04, 0x14, 0x9c, 0x1c,
  0xf3, 0x9b, 0x5e, 0xad, 0xe9, 0xef, 0xb8, 0x2a, 0x49, 0x8d, 0x1b, 0xbc,
  0x7f, 0x29, 0xbc, 0x73, 0x35, 0xa2, 0xd1, 0x1c, 0xcc, 0x18, 0xfd, 0xb7,
  0x9a, 0xc1, 0x34, 0x9e, 0x33, 0xac, 0xc7, 0x27, 0xb0, 0xbe, 0x25, 0x65,
  0x7a, 0x6f, 0x68, 0x0c, 0x48, 0x9e, 0xf9, 0x8e, 0x43, 0xaf, 0xfa, 0x5a,
  0xad, 0xb7, 0x73, 0x13, 0x21, 0xc7, 0x9c, 0x7f, 0x15, 0x1f, 0xf5, 0x98,
  0xcc, 0xb7, 0x17, 0x5d, 0xb6, 0x55, 0x44, 0x7f, 0x15, 0x0c, 0xe9, 0x50,
  0x92, 0x28, 0xe0, 0x0b, 0xfa, 0xe9, 0x2e, 0xa1, 0x22, 0xd1, 0xfc, 0xf5,
  0x83, 0x4d, 0xa7, 0x93, 0xc6, 0x84, 0xf5, 0xf4, 0xaf, 0x43, 0x07, 0xbd,
  0xc8, 0xd7, 0x2a, 0xcb, 0x2d, 0x63, 0x7d, 0x34, 0xbf, 0xd7, 0x94, 0xdf,
  0x3e, 0x09, 0x63, 0x7f, 0xde, 0xde, 0x6f, 0x2f, 0x17, 0x30, 0x9a, 0x06,
  0x88, 0x05, 0x3f, 0xa8, 0x86, 0x3c, 0x15, 0x07, 0x60, 0x73, 0x6b, 0xfd,
  0xf1, 0xf6, 0xb9, 0x72, 0x8f, 0x8a, 0x53, 0x22, 0x86, 0x7f, 0x8d, 0x1d,
  0x36, 0x01, 0x99, 0xcc, 0x3c, 0xb2, 0x0b, 0xae, 0xc4, 0x00, 0x01, 0xef,
  0xe5, 0x9e, 0x27, 0x34, 0xbc, 0xc4, 0x5b, 0xf9, 0x04, 0xc6, 0x73, 0x2e,
  0x18, 0x82, 0x7c, 0xee, 0x29, 0x9a, 0x3e, 0x24, 0x29, 0x6d, 0x97, 0x59,
  0x7f, 0x0d, 0x70, 0x23, 0xa4, 0xaa, 0x87, 0x9e, 0xbf, 0xe3, 0xd4, 0x90,
  0x93, 0xb7, 0x1a, 0xeb, 0xfb, 0x8f, 0xe2, 0xe5, 0x94, 0x9b, 0xcb, 0xff,
  0xdd, 0xfe, 0x98, 0x65, 0xed, 0x85, 0x96, 0xc5, 0x23, 0xb4, 0x78, 0x48,
  0x26, 0x9d, 0x29, 0x81, 0xc6, 0x03, 0x10, 0xc2, 0xb1, 0x72, 0x62, 0xfe,
  0x01, 0x75, 0xd9, 0x7e, 0x81, 0xf8, 0x0d, 0x9b, 0xd1, 0x1e, 0x44, 0x93,
  0x3a, 0x39, 0x86, 0x82, 0xbf, 0x25, 0x88, 0xaf, 0xac, 0x2e, 0xbc, 0xf9,
  0x06, 0x6e, 0x9e, 0x2e, 0x8c, 0xf4, 0xf2, 0x18, 0x7f, 0x29, 0xd6, 0xcb,
  0x00, 0x38, 0xec, 0x03, 0x3c, 0xef, 0x01, 0x68, 0x12, 0xa8, 0xae, 0xd1,
  0x5c, 0x3c, 0x93, 0xcb, 0x7a, 0x60, 0x96, 0x76, 0xb5, 0xb6, 0x0d, 0xfd,
  0xcc, 0xbe, 0x9c, 0xd4, 0xfe, 0xd0, 0x30, 0xc3, 0xb4, 0xe3, 0xb3, 0xb8,
  0x36, 0x6c, 0xc2, 0xd1, 0x09, 0xa6, 0xfc, 0x7b, 0xe6, 0x7e, 0xad, 0xcd,
  0x1f, 0x59, 0xc9, 0x00, 0x8a, 0x84, 0x7f, 0xaa, 0x49, 0x1d, 0x51, 0x26,
  0x5f, 0x8b, 0xdf, 0xb8, 0x96, 0x4a, 0x24, 0xa8, 0x95, 0x26, 0x28, 0x6e,
  0xa9, 0x2d, 0x5a, 0x81, 0xd6, 0x3c, 0xeb, 0xff, 0xad, 0xe9, 0x87, 0xce,
  0xa4, 0x19, 0xb7, 0xc4, 0xcd, 0x3d, 0x47, 0x83, 0x57, 0xb4, 0xc4, 0x4a,
  0x50, 0xf9, 0xa2, 0xe6, 0x6e, 0x7f, 0xb9, 0x03, 0xc0, 0x47, 0xe7, 0x1d,
  0xb8, 0xae, 0x42, 0x55, 0x5f, 0x86, 0xba, 0x6f, 0xdf, 0x2f, 0x85, 0xa8,
  0xcd, 0xc0, 0xdb, 0x5f, 0x15, 0xec, 0x35, 0xbe, 0x49, 0x49, 0x8d, 0x48,
  0xe7, 0x39, 0x87, 0x68, 0x24, 0x27, 0x5c, 0xaa, 0x7f, 0x07, 0x6a, 0xe9,
  0x45, 0x20, 0xc7, 0x35, 0x17, 0x40, 0x2f, 0xfb, 0xc4, 0x85, 0x76, 0x3b,
  0x92, 0xf2, 0xef, 0xf8, 0x17, 0xdb, 0x64, 0x29, 0xc0, 0x7f, 0xf6, 0x84,
  0xda, 0x76, 0xa2, 0xc1, 0xc0, 0xe9, 0x59, 0x05, 0x75, 0x7e, 0xba, 0x24,
  0xd7, 0x48, 0x2b, 0xcd, 0xa0, 0xcb, 0x77, 0xd4, 0xc0, 0x83, 0xb7, 0x9b,
  0x23, 0xd4, 0xf6, 0x99, 0x8e, 0x22, 0x0e, 0xd8, 0xf6, 0xb2, 0xcb, 0x7f,
  0x2f, 0xdc, 0x31, 0xf9, 0xc6, 0x2d, 0xd2, 0xfd, 0x84, 0x86, 0x1a, 0xf9,
  0xdf, 0x46, 0x0c, 0x75, 0x41, 0x96, 0x75, 0x21, 0x84, 0xcc, 0xef, 0xe7,
  0xd6, 0xe1, 0x88, 0x19, 0xe1, 0x32, 0x59, 0xcf, 0x44, 0x0a, 0x8c, 0x0a,
  0x98, 0x1f, 0xce, 0x81, 0xac, 0x6f, 0x9d, 0x39, 0x06, 0x43, 0x31, 0x2f,
  0xb2, 0x99, 0x5c, 0xff, 0x03, 0x07, 0x0f, 0x88, 0x1e, 0x6f, 0x45, 0x79,
  0xcb, 0x99, 0x45, 0x40, 0x46, 0xa7, 0x76, 0x7b, 0x64, 0x93, 0x3c, 0x2a,
  0x7f, 0x81, 0x4c, 0xdd, 0x16, 0x65, 0x93, 0x72, 0x9d, 0xa7, 0x14, 0xf5,
  0xd6, 0x10, 0x04, 0xb8, 0x42, 0xc5, 0x50, 0x2a, 0xf0, 0xb6, 0xd4, 0x38,
  0x3d, 0xa5, 0x77, 0xb0, 0x09, 0xb6, 0xa0, 0x57, 0xaa, 0x44, 0x39, 0x21,
  0x81, 0x35, 0x59, 0x26, 0x4a, 0xff, 0xb6, 0xb5, 0x52, 0x07, 0x01, 0xe9,
  0xb6, 0xb3, 0x5e, 0x87, 0x8c, 0xe2, 0x17, 0x93, 0xdc, 0x00, 0x32, 0xef,
  0xa9, 0xec, 0x4f, 0x60, 0x70, 0xa3, 0x16, 0xfe, 0xc4, 0x18, 0xcf, 0xb3,
  0xbe, 0x05, 0x2e, 0x69, 0x04, 0xff, 0x89, 0x05, 0xb5, 0x9f, 0x88, 0x82,
  0x6c, 0x7f, 0x19, 0xf1, 0xf4, 0x37, 0xdf, 0x5a, 0x46, 0x1a, 0x09, 0x77,
  0xd4, 0x25, 0x66, 0x75, 0x62, 0x33, 0x96, 0x1b, 0x8d, 0xdb, 0xe8, 0x5d,
  0xbc, 0xe5, 0x56, 0xdd, 0x7d, 0xa8, 0x6d, 0x6b, 0xa8, 0x8d, 0xed, 0x6d,
  0x58, 0xb0, 0xd7, 0xdb, 0x22, 0x9e, 0x81, 0x4b, 0x05, 0x3a, 0xf3, 0x95,
  0x2f, 0x1b, 0x6e, 0xf0, 0x44, 0x98, 0x8b, 0x28, 0x73, 0xa8, 0x56, 0xc3,
  0xf2, 0x6f, 0xe4, 0x48, 0x6a, 0xaa, 0x3f, 0xa9, 0x67, 0x44, 0x86, 0x1a,
  0x96, 0xde, 0xd9, 0x3a, 0x50, 0x00, 0x54, 0xc0, 0x7f, 0xbb, 0x69, 0xd5,
  0x9b, 0xed, 0xe1, 0xe8, 0xa4, 0x9f, 0xc4, 0x11, 0x87, 0xcd, 0x86, 0xaa,
  0xee, 0xe6, 0x63, 0xac, 0x4c, 0x48, 0xf2, 0x60, 0xf9, 0x03, 0x63, 0x77,
  0x99, 0x88, 0x9b, 0x4b, 0x92, 0x57, 0x5b, 0x15, 0x12, 0x32, 0xbb, 0xdb,
  0xdf, 0x2a, 0x53, 0xbe, 0x62, 0xb0, 0x39, 0x68, 0x1d, 0x16, 0x7f, 0x1b,
  0xe5, 0x31, 0x1b, 0x8b, 0x1d, 0xd7, 0x92, 0x79, 0xf5, 0x53, 0xd3, 0x4d,
  0xee, 0xd9, 0xb8, 0x40, 0x7f, 0x86, 0x36, 0x98, 0x1b, 0x3c, 0x20, 0x0b,
  0x21, 0xd7, 0xe7, 0x58, 0x32, 0x6e, 0x9e, 0x98, 0xdc, 0xef, 0xba, 0xa3,
  0x83, 0x5f, 0x7b, 0xe6, 0x36, 0x9c, 0x44, 0x5c, 0xd2, 0x92, 0xad, 0x0c,
  0xd6, 0xef, 0xb1, 0x8c, 0xfc, 0xcd, 0x25, 0x89, 0x64, 0xcc, 0x22, 0xbd,
  0x14, 0x76, 0x6d, 0x98, 0xe9, 0x96, 0x70, 0xab, 0x60, 0x7f, 0x4d, 0xfa,
  0x16, 0xbd, 0x91, 0x19, 0x59, 0x4d, 0xc0, 0x22, 0xaa, 0x54, 0x81, 0x45,
  0xdc, 0x53, 0xff, 0x78, 0xd3, 0x40, 0x24, 0x93, 0x2f, 0x92, 0x24, 0xc7,
  0xaf, 0x70, 0x45, 0xbf, 0xce, 0xc3, 0x9a, 0x79, 0x44, 0x9b, 0x2b, 0x9b,
  0x4f, 0x81, 0x1c, 0xab, 0x75, 0x20, 0x4d, 0xdf, 0x7f, 0x60, 0x8f, 0xc3,
  0x01, 0x83, 0x88, 0xc9, 0x5a, 0xfa, 0xb1, 0x2c, 0xe4, 0xee, 0x13, 0x02,
  0xa4, 0xf1, 0x47, 0x54, 0xfa, 0x5a, 0x85, 0xfb, 0x1e, 0x52, 0x8b, 0x4c,
  0xce, 0x82, 0x3c, 0xc6, 0xf1, 0xbb, 0x12, 0x82, 0xd6, 0xe9, 0x4b, 0x48,
  0x9a, 0x2d, 0x0b, 0x1a, 0x8c, 0x8a, 0x03, 0x7f, 0xdb, 0x00, 0xf1, 0x21,
  0x2b, 0x34, 0x9d, 0xdc, 0x85, 0xa3, 0x97, 0xbe, 0x71, 0xe8, 0xbc, 0x74,
  0xb3, 0x8b, 0x78, 0x4a, 0x4b, 0x8b, 0x36, 0x69, 0xf1, 0xc2, 0x81, 0x9d,
  0x79, 0x84, 0x66, 0x4a, 0xaa, 0x5b, 0x59, 0xe2, 0x57, 0xd0, 0x02, 0xea,
  0x42, 0xba, 0xc8, 0xd7, 0xf1, 0xec, 0xcc, 0xd2, 0xc5, 0x11, 0x55, 0x7f,
  0xd3, 0x1f, 0x7b, 0x64, 0xe0, 0x11, 0x9f, 0xcb, 0x35, 0x23, 0xee, 0x01,
  0x6c, 0xb6, 0x72, 0xe2, 0x59, 0xd6, 0xf0, 0xc0, 0xee, 0x3d, 0xb9, 0x26,
  0x96, 0x47, 0xa8, 0xde, 0x98, 0x5f, 0x61, 0x18, 0xfd, 0x73, 0x93, 0xf0,
  0xea, 0x1d, 0x7e, 0x7f, 0x27, 0x61, 0x4b, 0xce, 0x5d, 0xbc, 0xbe, 0x85,
  0xc3, 0xb6, 0x86, 0xcb, 0x5a, 0x95, 0x3c, 0xf0, 0x40, 0xb5, 0x27, 0xff,
  0x2d, 0x4f, 0xff, 0x87, 0x83, 0x2f, 0x40, 0x96, 0x81, 0xd2, 0xae, 0x71,
  0xf2, 0x24, 0x39, 0x37, 0x6b, 0x41, 0x3e, 0x35, 0x56, 0x6f, 0x3d, 0xf9,
  0xb0, 0x7f, 0xb2, 0x8b, 0x3b, 0x6d, 0x3b, 0x51, 0xca, 0x1a, 0xa9, 0x57,
  0x86, 0xb4, 0x8a, 0x29, 0x4f, 0x1a, 0x61, 0x8b, 0x05, 0x90, 0xeb, 0x9f,
  0x23, 0x67, 0x7c, 0xe4, 0x0c, 0x9e, 0x35, 0x86, 0xcd, 0x9a, 0x88, 0x49,
  0xa8, 0xff, 0x4a, 0x7a, 0x81, 0xf7, 0x58, 0x85, 0x7e, 0x00, 0xcc, 0x45,
  0x6f, 0xe8, 0x4a, 0xb9, 0x2b, 0x5f, 0x66, 0xa3, 0x24, 0x5c, 0xe5, 0xb3,
  0xdc, 0x78, 0x5a, 0xba, 0x69, 0xbb, 0x86, 0xcc, 0x3e, 0xb3, 0x1b, 0x4f,
  0xb6, 0xb9, 0xcd, 0x07, 0xa9, 0xb0, 0x64, 0x00, 0x04, 0xdd, 0x2d, 0xa5,
  0x85, 0x92, 0x18, 0xd2, 0x91, 0x2e, 0x3d, 0x24, 0x45, 0x38, 0x11, 0x35,
  0x41, 0x71, 0x8b, 0x6e, 0x8d, 0xff, 0x81, 0x87, 0x50, 0x01, 0x1a, 0x85,
  0x85, 0xdc, 0x04, 0x4f, 0xa5, 0x41, 0xbc, 0x64, 0xf6, 0x1e, 0xc0, 0xe9,
  0x7e, 0x09, 0x45, 0x29, 0x5f, 0x8e, 0x69, 0x1c, 0xd1, 0x09, 0x51, 0xbc,
  0x81, 0x6d, 0x06, 0x50, 0xb4, 0x5b, 0xbe, 0x9b, 0x36, 0x87, 0xfd, 0xfa,
  0x02, 0xf4, 0x1a, 0xce, 0xcd, 0x3f, 0x3e, 0x6a, 0xab, 0x9c, 0x60, 0x90,
  0xb2, 0x1f, 0x1b, 0xc1, 0xd7, 0x85, 0xa4, 0x62, 0x25, 0xd3, 0x65, 0xaa,
  0x56, 0x6f, 0x3a, 0x3a, 0x86, 0xe9, 0xa7, 0xe5, 0x82, 0xae, 0x3f, 0x9f,
  0xc6, 0x05, 0x81, 0x65, 0xbd, 0xa2, 0xee, 0x22, 0xbb, 0x81, 0x32, 0xa1,
  0xcf, 0x0e, 0xc1, 0x5f, 0x73, 0x94, 0x56, 0xe5, 0x17, 0x5c, 0xbe, 0xb5,
  0xa4, 0x42, 0x78, 0xc5, 0x29, 0x79, 0xa8, 0x74, 0x1c, 0x33, 0x48, 0xd6,
  0x48, 0xd9, 0x7f, 0x3b, 0xd2, 0x8a, 0xe1, 0xe1, 0xe7, 0x31, 0x05, 0xdc,
  0xcc, 0x93, 0x86, 0x67, 0xea, 0x09, 0xd7, 0xfc, 0xa7, 0x4f, 0x86, 0x4a,
  0xcc, 0x8b, 0x9e, 0x76, 0x09, 0xeb, 0x15, 0x10, 0x00, 0x1d, 0x4f, 0xe5,
  0xf5, 0x53, 0x3b, 0x4a, 0x25, 0x8c, 0x0e, 0xcc, 0x77, 0xba, 0x35, 0x60,
  0x10, 0x50, 0x58, 0x3f, 0x03, 0x60, 0x7e, 0x7f, 0x4d, 0xa4, 0xe1, 0xd6,
  0x9f, 0x4a, 0xc2, 0xf3, 0xf5, 0x42, 0x6a, 0x19, 0x3f, 0x23, 0xcb, 0xc7,
  0x08, 0x37, 0xa5, 0x60, 0x9b, 0x33, 0x8c, 0x3a, 0x7f, 0x03, 0x05, 0xaa,
  0x0b, 0x97, 0xf5, 0x2a, 0xf2, 0xf8, 0x04, 0xba, 0x7c, 0x62, 0xff, 0x0d,
  0x23, 0x26, 0x42, 0x05, 0xf7, 0x84, 0x5d, 0xd2, 0x7f, 0xbb, 0xa4, 0xce,
  0x41, 0xcb, 0xb1, 0x70, 0x51, 0x48, 0xe9, 0xc5, 0xf0, 0xd8, 0x7b, 0x15,
  0xe6, 0xa6, 0xdd, 0x8d, 0x88, 0x04, 0xf7, 0xe4, 0x05, 0x02, 0xf9, 0xf8,
  0xcc, 0x58, 0xa4, 0x60, 0x17, 0x7f, 0xe9, 0x71, 0x90, 0x1a, 0xfd, 0xa7,
  0x5d, 0x1b, 0x33, 0x4f, 0x4e, 0xff, 0x96, 0xff, 0xe0, 0xba, 0x2a, 0x97,
  0xe3, 0x0d, 0xba, 0xe7, 0x94, 0xb2, 0xfb, 0x3c, 0xbf, 0x6f, 0x04, 0xfa,
  0x11, 0x55, 0x04, 0xce, 0x37, 0x67, 0xb8, 0xc8, 0x2e, 0xca, 0x3c, 0xb9,
  0x43, 0x7c, 0xc4, 0x4d, 0xc4, 0x75, 0x14, 0xe4, 0x0f, 0x81, 0x1c, 0x0c,
  0x50, 0x5e, 0x7a, 0x1a, 0x6a, 0x07, 0xde, 0xeb, 0x25, 0xbc, 0x1f, 0xb6,
  0x24, 0x9f, 0x58, 0xce, 0xcc, 0x43, 0x66, 0x7f, 0x9c, 0xaa, 0x1f, 0x31,
  0x8f, 0x7f, 0x7c, 0x26, 0x43, 0x96, 0x2c, 0x06, 0x1a, 0xd6, 0x20, 0x7a,
  0x29, 0x85, 0xf6, 0x70, 0x20, 0x0d, 0xa3, 0x11, 0xfb, 0x1f, 0x2f, 0x75,
  0x65, 0x14, 0xd4, 0x43, 0x85, 0xb5, 0x9a, 0x21, 0xac, 0x8c, 0x48, 0x7d,
  0x7f, 0x40, 0xf8, 0x5c, 0x34, 0xe8, 0x6f, 0x8b, 0xc0, 0x20, 0xd2, 0x75,
  0x0b, 0x69, 0x0f, 0xdd, 0x86, 0xc6, 0x8b, 0xde, 0x3c, 0x63, 0x46, 0xf4,
  0x7d, 0x98, 0x0b, 0x59, 0x43, 0x33, 0x07, 0xed, 0x4a, 0x3c, 0xf6, 0x48,
  0x88, 0xa4, 0x1f, 0x81, 0x8e, 0xd9, 0xab, 0x6e, 0x2d, 0xda, 0x2e, 0x89,
  0x1c, 0x8d, 0xcf, 0x2b, 0xde, 0xce, 0xf3, 0x79, 0x0e, 0xf2, 0x10, 0xf6,
  0x59, 0xb3, 0x07, 0x87, 0x34, 0x60, 0x7f, 0x08, 0xce, 0x8b, 0x4c, 0x41,
  0xc3, 0x10, 0xd5, 0xe0, 0xfb, 0x11, 0xf1, 0xf7, 0xea, 0x15, 0x34, 0xd4,
  0x9e, 0x99, 0x8b, 0x0e, 0xaf, 0x7c, 0x76, 0x57, 0x43, 0xfc, 0x81, 0x10,
  0x0e, 0x92, 0xf0, 0xdf, 0x04, 0x2a, 0x97, 0xb6, 0xf3, 0x81, 0xd6, 0x3d,
  0x70, 0x71, 0x4f, 0x81, 0xd5, 0x7a, 0xe8, 0xde, 0x62, 0xaf, 0xcf, 0x1d,
  0xbf, 0x3a, 0xe9, 0xe8, 0xe4, 0x17, 0xfe, 0xb7, 0x1a, 0xf1, 0xa5, 0xc4,
  0x58, 0x30, 0x91, 0xdb, 0xa2, 0xc1, 0xb4, 0x11, 0x1d, 0xa6, 0xf9, 0xe0,
  0xc3, 0xba, 0xd3, 0x29, 0xa2, 0x2a, 0xd2, 0x86, 0x88, 0x8d, 0x45, 0x88,
  0xeb, 0x57, 0x07, 0x7f, 0xa7, 0xbf, 0x51, 0xb5, 0x2f, 0xda, 0xa8, 0xdc,
  0x7b, 0x13, 0x66, 0x78, 0xdd, 0xf9, 0x7b, 0xff, 0xb6, 0xf2, 0x4c, 0x32,
  0xfb, 0x8e, 0x0e, 0xd0, 0x4b, 0x83, 0x8a, 0xe5, 0xfd, 0x1b, 0x9b, 0xaa,
  0x82, 0x3d, 0x90, 0x81, 0x12, 0xb9, 0xf0, 0x1c, 0x7a, 0x0e, 0x18, 0x7f,
  0x05, 0x8b, 0x94, 0x08, 0x8c, 0x86, 0x96, 0xfb, 0x71, 0x98, 0x2d, 0x58,
  0x6b, 0x1d, 0x5d, 0xc8, 0x8f, 0x2c, 0xb4, 0x45, 0x1f, 0xf5, 0x5e, 0x78,
  0x74, 0x94, 0x88, 0x26, 0x46, 0xa3, 0x9f, 0x7f, 0x02, 0x9e, 0x6d, 0x41,
  0x99, 0xe2, 0x42, 0xf9, 0xc6, 0xb5, 0x91, 0x4d, 0xfd, 0x54, 0x90, 0x25,
  0x25, 0xcc, 0x31, 0x81, 0x7a, 0x00, 0x84, 0xba, 0x63, 0xf9, 0x4e, 0x8d,
  0x41, 0x53, 0x44, 0x02, 0xc4, 0x61, 0x18, 0xd8, 0xa7, 0xdf, 0x62, 0x57,
  0xb9, 0x3e, 0xc4, 0x33, 0x17, 0x16, 0xb6, 0xcc, 0xf5, 0x31, 0x6a, 0x1d,
  0xe0, 0x81, 0xd6, 0xa1, 0x40, 0xb0, 0x5c, 0x53, 0x13, 0xfc, 0x00, 0xa3,
  0x13, 0xb3, 0x8b, 0x04, 0x34, 0x4e, 0xf7, 0xd5, 0xe7, 0x82, 0x21, 0x87,
  0xcc, 0xd4, 0xd3, 0x9c, 0x4e, 0x25, 0xaf, 0xfb, 0x49, 0x6c, 0x3a, 0x2f,
  0x94, 0x9b, 0x6b, 0x6a, 0x32, 0xc0, 0xa7, 0xf3, 0x3d, 0x68, 0x6c, 0x5d,
  0xb7, 0xfc, 0x58, 0x90, 0x7b, 0xb6, 0xa2, 0x75, 0x08, 0x97, 0xa8, 0xc9,
  0x65, 0x7e, 0xd8, 0xab, 0xb4, 0x81, 0x91, 0x98, 0x33, 0x7a, 0x04, 0xc6,
  0xc9, 0xae, 0x96, 0x38, 0xbb, 0xdd, 0xec, 0xe4, 0xf6, 0xea, 0x1c, 0x1d,
  0xd5, 0xb4, 0xa2, 0x07, 0xa5, 0xd7, 0xfd, 0x57, 0x03, 0x05, 0x58, 0x8d,
  0x7f, 0x38, 0xcc, 0xe6, 0x85, 0x9d, 0x60, 0x66, 0xa6, 0x85, 0x47, 0xaa,
  0xd0, 0xf6, 0xd4, 0x9f, 0x51, 0x39, 0xce, 0x12, 0x0f, 0xdb, 0x1c, 0x2c,
  0xbf, 0xb6, 0x60, 0xc8, 0x22, 0x05, 0x81, 0x61, 0xb0, 0xfa, 0x1f, 0x32,
  0x81, 0xcd, 0xc7, 0x52, 0x50, 0x1e, 0xbd, 0xa3, 0xc6, 0x47, 0x8a, 0x43,
  0xdc, 0x00, 0xa2, 0x91, 0xda, 0x14, 0x16, 0xd5, 0x7e, 0xaa, 0xdb, 0x4e,
  0x4e, 0x7d, 0x8f, 0x6f, 0xbb, 0x6f, 0x06, 0xc0, 0xd0, 0x2d, 0x46, 0x2e,
  0x34, 0x07, 0xce, 0x8b, 0xc8, 0xa3, 0x6f, 0x8a, 0xf9, 0x67, 0x39, 0x5a,
  0xe9, 0x4a, 0x9d, 0xbc, 0x6b, 0x72, 0x0a, 0x81, 0xd9, 0xbf, 0x09, 0x37,
  0x50, 0x96, 0x9d, 0x78, 0xf8, 0xa9, 0x3f, 0x44, 0xa6, 0xf0, 0x26, 0x07,
  0x93, 0xde, 0x72, 0xf2, 0x0b, 0x5b, 0x13, 0x29, 0x75, 0x23, 0x9b, 0x41,
  0x78, 0x7f, 0x65, 0x48, 0xa7, 0xba, 0xa0, 0x34, 0xbe, 0xcb, 0x91, 0x5c,
  0x10, 0x41, 0x29, 0x47, 0x0e, 0x24, 0x90, 0x48, 0x11, 0xde, 0x90, 0xfd,
  0xf2, 0x64, 0xc6, 0xf2, 0x56, 0x0e, 0x8c, 0x9b, 0x0b, 0xa4, 0xac, 0xa0,
  0x3c, 0x7d, 0xd8, 0xd1, 0xeb, 0xf5, 0x56, 0x69, 0x2e, 0x11, 0xdb, 0x4c,
  0xad, 0xf2, 0x7f, 0xd1, 0x64, 0x0d, 0xf4, 0xf6, 0xc9, 0xee, 0x4b, 0x49,
  0xad, 0x1e, 0xe3, 0x6d, 0x84, 0xf5, 0xe1, 0x6e, 0x6f, 0x7e, 0x38, 0x4f,
  0x9d, 0x87, 0x2b, 0xaf, 0xd3, 0x6b, 0xea, 0xa1, 0xae, 0x71, 0x22, 0x45,
  0x72, 0xe3, 0x00, 0xf5, 0x00, 0x81, 0x36, 0x14, 0x96, 0x14, 0x2d, 0x14,
  0x39, 0xc2, 0x22, 0x9d, 0xd7, 0x3c, 0xce, 0x3e, 0xdf, 0x40, 0xb3, 0xdb,
  0x98, 0x24, 0x7f, 0x78, 0x6c, 0x48, 0xe4, 0x61, 0x62, 0x2e, 0x42, 0xef,
  0xcc, 0x7f, 0xef, 0x6c, 0x25, 0x35, 0x86, 0xcb, 0xa3, 0xfa, 0x62, 0x27,
  0x35, 0x7f, 0x6c, 0x8a, 0x51, 0x2a, 0x4c, 0xc7, 0x82, 0x1c, 0xc4, 0x37,
  0x03, 0x24, 0x39, 0x3b, 0x1a, 0x1c, 0xb0, 0xa5, 0x50, 0xed, 0x62, 0x5f,
  0x8a, 0x5d, 0xb6, 0x74, 0xd3, 0xa8, 0x0b, 0xe7, 0xe9, 0x52, 0xff, 0xdf,
  0xa4, 0x1c, 0x79, 0x52, 0x21, 0xd3, 0xba, 0x7d, 0x7f, 0x9f, 0xda, 0x11,
  0xd6, 0x6f, 0x49, 0x93, 0xf9, 0x50, 0x59, 0x49, 0x47, 0x19, 0xa4, 0xd5,
  0x1a, 0x12, 0x7f, 0x7e, 0x3a, 0x0d, 0x97, 0x29, 0x3c, 0xaf, 0xe6, 0x7d,
  0x23, 0xd9, 0x34, 0xe7, 0xc8, 0xd1, 0xb1, 0xb3, 0x06, 0x5a, 0x21, 0x2f,
  0x3e, 0x53, 0x02, 0x70, 0x5a, 0x89, 0x86, 0x6c, 0x9b, 0x62, 0x38, 0x5f,
  0xf2, 0xb8, 0xef, 0xde, 0x0b, 0xf8, 0x81, 0x4f, 0xaa, 0x82, 0x4e, 0xda,
  0x51, 0xf4, 0xae, 0xa0, 0xb3, 0xf6, 0x74, 0x4f, 0x61, 0x5b, 0xc8, 0x75,
  0x4e, 0x91, 0x42, 0x69, 0x24, 0x4d, 0x57, 0xa4, 0xcf, 0x83, 0xe7, 0x95,
  0x66, 0xdc, 0xc1, 0x8a, 0x0b, 0xd2, 0x87, 0x20, 0xfb, 0xce, 0xe7, 0x75,
  0x17, 0x13, 0x89, 0x81, 0x57, 0x10, 0xb4, 0x8c, 0xcd, 0x52, 0x97, 0x7b,
  0xb0, 0x52, 0x72, 0x21, 0x07, 0xb8, 0x9a, 0x52, 0xcd, 0x16, 0x72, 0xae,
  0x63, 0x67, 0x5f, 0x34, 0x23, 0x1b, 0xda, 0xef, 0x1b, 0x37, 0x08, 0x56,
  0x79, 0xf1, 0x0d, 0x96, 0x6a, 0xba, 0x2d, 0x08, 0xa2, 0xbf, 0xc3, 0x53,
  0x51, 0x1f, 0x1e, 0xa6, 0x49, 0x77, 0x49, 0x0d, 0x09, 0x99, 0x7d, 0x02,
  0x7f, 0x78, 0xac, 0x4f, 0xec, 0x0c, 0xf7, 0xa5, 0xa0, 0xec, 0x77, 0x66,
  0x07, 0xe9, 0xf2, 0x22, 0xfc, 0x1f, 0x90, 0x79, 0xea, 0xa5, 0xbe, 0x7f,
  0x12, 0x31, 0x79, 0x5e, 0xf4, 0x00, 0xa6, 0x61, 0x03, 0x46, 0xda, 0x5f,
  0xae, 0xae, 0x54, 0xc4, 0xa8, 0x9d, 0x1f, 0x6a, 0xab, 0x7e, 0x93, 0x67,
  0x89, 0x3f, 0xdb, 0xaa, 0x7f, 0x10, 0xc7, 0xc0, 0x31, 0xe5, 0xb2, 0x13,
  0x4d, 0x4e, 0x5d, 0xfb, 0x00, 0xcf, 0x1b, 0x15, 0xf3, 0x20, 0x28, 0xfa,
  0x30, 0x27, 0x19, 0x62, 0xc6, 0xa7, 0x29, 0x3f, 0x7f, 0xbc, 0x61, 0xae,
  0x50, 0xd7, 0x38, 0xb1, 0x58, 0x3c, 0xc2, 0x0b, 0xad, 0x2b, 0x25, 0xc5,
  0xa1, 0x2a, 0x3b, 0xb2, 0x9c, 0x75, 0x0b, 0x0a, 0xc2, 0x7f, 0x10, 0x54,
  0x6a, 0xe0, 0x9f, 0x50, 0x5f, 0x44, 0xfa, 0x2c, 0x19, 0x91, 0xa9, 0xe3,
  0xe6, 0xbf, 0x26, 0xc9, 0x11, 0xc7, 0x4e, 0x1f, 0x29, 0xe2, 0x95, 0x88,
  0xeb, 0xec, 0x25, 0x81, 0xdb, 0x7c, 0x71, 0xea, 0x30, 0x82, 0x00, 0xb3,
  0x32, 0x86, 0xb6, 0x72, 0xed, 0xce, 0x6c, 0xe4, 0x93, 0xea, 0x75, 0xd2,
  0xbd, 0x3d, 0xc6, 0xf3, 0xd4, 0x27, 0x89, 0x04, 0x1c, 0x75, 0x44, 0x56,
  0x3f, 0xd6, 0xe6, 0x81, 0x81, 0xf3, 0xa0, 0xca, 0x5f, 0xd6, 0xfa, 0x19,
  0x3a, 0xd7, 0xc8, 0x85, 0x36, 0x8e, 0x87, 0x62, 0xaa, 0xde, 0x4d, 0xbd,
  0xb5, 0x0a, 0x0a, 0xd9, 0x30, 0x8a, 0x2a, 0x85, 0x55, 0xd6, 0x55, 0x71,
  0xd6, 0xd6, 0xa4, 0x51, 0x09, 0xc8, 0xfd, 0x31, 0x55, 0x84, 0xf0, 0xbc,
  0xce, 0x4b, 0xc7, 0xfc, 0x1e, 0xe0, 0x82, 0x5e, 0x5d, 0x7f, 0x94, 0x70,
  0x0e, 0x91, 0xe4, 0x92, 0x01, 0x7f, 0x39, 0x49, 0x77, 0x5c, 0xb1, 0xf8,
  0x82, 0x30, 0x2d, 0xe8, 0xcd, 0x85, 0x9e, 0xe7, 0x01, 0x60, 0x7b, 0x84,
  0x62, 0xe9, 0x57, 0x6e, 0x44, 0xcb, 0x02, 0xe3, 0xa7, 0x1d, 0x3e, 0xb5,
  0xc6, 0x03, 0xe6, 0x47, 0xce, 0x58, 0x16, 0x27, 0xeb, 0xd4, 0xe5, 0x7f,
  0x6d, 0xe4, 0xcc, 0xf5, 0x4c, 0x44, 0x8d, 0xdb, 0x4a, 0xde, 0xff, 0xff,
  0x04, 0x00, 0x00, 0x00, 0x40, 0x06, 0x00, 0x00, 0x57, 0xef, 0xd0, 0x03,
  0x28, 0x33, 0x11, 0x26, 0xfa, 0xdf, 0xc3, 0xc5, 0x5e, 0xd9, 0xf4, 0xe8,
  0x22, 0x81, 0x33, 0x3b, 0x30, 0x38, 0xd0, 0xd6, 0x81, 0xa3, 0x48, 0x09,
  0x15, 0xf3, 0x3d, 0xe2, 0xf2, 0x0e, 0x73, 0x9c, 0x01, 0xac, 0xf4, 0x57,
  0x06, 0x2d, 0x34, 0x03, 0x4b, 0x65, 0x39, 0x5b, 0xd4, 0x7f, 0xdf, 0xdc,
  0x1f, 0x06, 0x91, 0x29, 0xf4, 0x98, 0x53, 0xd1, 0x4e, 0x0b, 0xd4, 0x0f,
  0xd3, 0x1c, 0xfb, 0x2a, 0x27, 0xef, 0x13, 0x33, 0xee, 0xe1, 0xdf, 0x39,
  0x1f, 0x0a, 0x7f, 0xe4, 0xe7, 0xf9, 0xbd, 0x67, 0x30, 0x1d, 0x30, 0x22,
  0x0b, 0x7f, 0xc0, 0x02, 0x1b, 0x35, 0xfb, 0xf7, 0x48, 0x62, 0x25, 0x25,
  0x81, 0x95, 0xc2, 0x37, 0x5c, 0x38, 0x27, 0x6d, 0xd2, 0x46, 0x1e, 0x30,
  0x2a, 0x11, 0xc1, 0x15, 0xd5, 0xaf, 0xb6, 0x31, 0x1d, 0x81, 0xbf, 0xcb,
  0x24, 0xdc, 0x08, 0x9e, 0x06, 0x5b, 0xff, 0x77, 0x10, 0x9e, 0xb5, 0xb7,
  0x89, 0x9c, 0x97, 0x91, 0x7f, 0xfb, 0x43, 0x0c, 0xf2, 0x15, 0xf5, 0xed,
  0x40, 0x2d, 0x32, 0x3a, 0xc5, 0xe7, 0xed, 0xb4, 0x42, 0xcc, 0x42, 0xda,
  0x52, 0x1a, 0x12, 0xe3, 0xbe, 0xb3, 0x42, 0x2f, 0x7f, 0xe7, 0x16, 0xf4,
  0xcb, 0xdb, 0xaa, 0xd1, 0x41, 0x7c, 0x01, 0xff, 0xe1, 0xe6, 0x34, 0xc9,
  0x0f, 0x07, 0xfd, 0x81, 0xfd, 0x1c, 0x54, 0x09, 0xf8, 0x3d, 0xde, 0x5f,
  0xf6, 0x19, 0x2f, 0xdf, 0xfa, 0x90, 0xc1, 0xaf, 0x1f, 0xa6, 0x24, 0x9c,
  0x6e, 0x03, 0xf0, 0xcc, 0xb1, 0x9f, 0x2a, 0x00, 0xbf, 0x3b, 0x79, 0x7f,
  0x81, 0xc9, 0xba, 0x38, 0xf3, 0xec, 0xc7, 0xe0, 0xd9, 0xeb, 0xbd, 0xfa,
  0xf8, 0xb7, 0x19, 0x00, 0xfe, 0xeb, 0x50, 0xea, 0xf4, 0xfe, 0xfe, 0x19,
  0xcf, 0xb9, 0xea, 0x5a, 0x1d, 0xac, 0xdf, 0x7f, 0x15, 0x11, 0x24, 0x01,
  0xfc, 0xb7, 0x2a, 0xe3, 0x61, 0x7f, 0x0a, 0xe2, 0x01, 0xf3, 0x29, 0x06,
  0xdf, 0xf6, 0x10, 0xda, 0x2f, 0xf0, 0x14, 0x45, 0xcd, 0xef, 0x09, 0x44,
  0x34, 0x06, 0xfe, 0x7f, 0x0a, 0x16, 0xca, 0xc0, 0x0d, 0xf7, 0xee, 0x05,
  0x03, 0xb0, 0x01, 0x19, 0xbc, 0x05, 0x05, 0x12, 0xe9, 0x0d, 0x36, 0x06,
  0xc4, 0xfb, 0xed, 0x36, 0x52, 0x0d, 0xda, 0x05, 0xc4, 0x15, 0x01, 0x46,
  0x2c, 0x0f, 0x81, 0x2e, 0x0d, 0xd1, 0x69, 0x1d, 0x12, 0xc9, 0x24, 0x09,
  0xc3, 0x79, 0x11, 0xd5, 0x86, 0x81, 0x04, 0x17, 0xf8, 0xd0, 0x41, 0x4a,
  0xe6, 0xe0, 0xf7, 0xe4, 0x04, 0x53, 0x06, 0x55, 0x2f, 0x4a, 0x32, 0xbd,
  0xc5, 0xf2, 0x0c, 0x7f, 0xf5, 0x29, 0xe3, 0x05, 0xf0, 0xd7, 0x0f, 0x14,
  0xaf, 0x7f, 0x8f, 0xca, 0xf9, 0x6b, 0x03, 0x35, 0x0f, 0xc3, 0x5f, 0xd4,
  0x30, 0x50, 0x59, 0x15, 0x01, 0x34, 0xc9, 0x2a, 0x1a, 0x0f, 0xe8, 0x87,
  0x33, 0xf5, 0xf9, 0x81, 0xd7, 0xfd, 0xe9, 0xf8, 0xed, 0xf5, 0x06, 0x04,
  0xdc, 0x12, 0x04, 0xce, 0xdf, 0xa9, 0x31, 0x20, 0x81, 0xeb, 0x09, 0xe0,
  0x1b, 0x1c, 0x00, 0x4f, 0x27, 0x3d, 0x06, 0xe0, 0xff, 0xe8, 0xcf, 0xf5,
  0x0b, 0xe2, 0x18, 0xd6, 0xe6, 0x12, 0x26, 0xc3, 0xda, 0x09, 0x15, 0xde,
  0x7f, 0x3e, 0x0e, 0x2a, 0x2b, 0xaf, 0x04, 0x00, 0xde, 0x9a, 0x04, 0x0a,
  0xfb, 0x7f, 0xd4, 0xf4, 0xf1, 0xf0, 0xc2, 0x1f, 0xf6, 0x1b, 0x34, 0xa7,
  0xc8, 0x19, 0xc2, 0x36, 0x23, 0xac, 0xd2, 0xec, 0xdf, 0xe2, 0x13, 0x32,
  0xa4, 0x04, 0xf1, 0xfb, 0x7f, 0xda, 0xfb, 0xdd, 0xd9, 0x12, 0x37, 0xf0,
  0x6b, 0x4d, 0x68, 0x5c, 0x7f, 0xe4, 0x10, 0x2c, 0xbb, 0x14, 0xdb, 0xd5,
  0xed, 0x7b, 0x4a, 0xf8, 0xea, 0x08, 0xe6, 0x48, 0x3b, 0x16, 0x24, 0xad,
  0xf3, 0xa5, 0x27, 0xe0, 0xca, 0xfe, 0x5f, 0xd6, 0xf6, 0xda, 0x7f, 0xd7,
  0xc1, 0xff, 0xda, 0x4d, 0xff, 0xbd, 0x10, 0x3f, 0x13, 0x7f, 0xde, 0x89,
  0xa1, 0x8c, 0x54, 0xef, 0x30, 0xdf, 0xda, 0x94, 0xed, 0x3d, 0x19, 0x08,
  0x62, 0x0c, 0x7f, 0x02, 0x53, 0x23, 0x11, 0x4b, 0xc7, 0x41, 0x67, 0x1d,
  0x11, 0xe4, 0xe5, 0xea, 0x9b, 0x71, 0x04, 0x28, 0xff, 0x79, 0x28, 0x81,
  0x45, 0xd5, 0xfe, 0xe7, 0x72, 0xd9, 0xd2, 0xee, 0x6f, 0x37, 0xb4, 0xc8,
  0xbd, 0xcd, 0x7f, 0xc6, 0xdc, 0x06, 0x1c, 0x05, 0xde, 0x0b, 0x20, 0x62,
  0x9b, 0xc0, 0x0a, 0x32, 0xad, 0xc2, 0xe3, 0x43, 0xaa, 0x3b, 0xe2, 0x53,
  0x00, 0x1e, 0x59, 0x2b, 0x14, 0xba, 0x37, 0x1c, 0xb1, 0x37, 0x76, 0xab,
  0xdd, 0xa9, 0x7f, 0xed, 0xf2, 0xd8, 0xbe, 0x81, 0x60, 0x3f, 0x1c, 0x22,
  0xbd, 0xd1, 0x14, 0x2f, 0xe4, 0xd2, 0x0e, 0xf3, 0xf6, 0x37, 0x07, 0xdb,
  0x21, 0x26, 0x7f, 0xae, 0x30, 0x2f, 0x90, 0x41, 0x4a, 0x38, 0xcc, 0x26,
  0xb4, 0xac, 0x9d, 0xc4, 0x63, 0x9a, 0xe2, 0x40, 0xba, 0x4c, 0x08, 0x75,
  0x03, 0x05, 0x81, 0x0f, 0xf6, 0xec, 0x24, 0x1d, 0x04, 0x3c, 0x2f, 0xdc,
  0xca, 0x07, 0x40, 0xd9, 0xed, 0x11, 0xae, 0x0c, 0xc5, 0x69, 0x34, 0xfa,
  0xae, 0xb5, 0x7f, 0xea, 0xb3, 0xaa, 0x8f, 0xa1, 0xaf, 0xd3, 0xc1, 0xfb,
  0x5b, 0xb8, 0xdf, 0xbd, 0x7f, 0xff, 0xc4, 0x9b, 0xdd, 0x5e, 0x31, 0x31,
  0xad, 0x36, 0x37, 0x57, 0x46, 0x46, 0xcf, 0x4f, 0xe7, 0xfe, 0x22, 0x4b,
  0xcc, 0xc9, 0xf5, 0xe0, 0xe1, 0x6d, 0x0c, 0xf2, 0x2e, 0x7f, 0xdb, 0xa4,
  0xd4, 0x25, 0x1c, 0x10, 0x3c, 0xf7, 0x05, 0xc1, 0x3f, 0x21, 0x9e, 0xee,
  0xf4, 0xfb, 0x7f, 0x13, 0x1b, 0x3b, 0x1e, 0xac, 0x01, 0xe3, 0x9b, 0x04,
  0x10, 0xf5, 0x7d, 0x1a, 0x1f, 0x01, 0x81, 0x2a, 0x9a, 0xeb, 0x98, 0x0c,
  0x2f, 0xf9, 0x43, 0x48, 0xd8, 0x53, 0x0f, 0xff, 0x62, 0x71, 0xa1, 0x25,
  0x19, 0xdc, 0x26, 0x3a, 0xff, 0xd0, 0x38, 0x49, 0x7f, 0xff, 0xec, 0xe5,
  0x1b, 0x08, 0x18, 0x79, 0xc5, 0xb2, 0x2c, 0x28, 0xb9, 0x7f, 0x59, 0x1b,
  0x5b, 0xef, 0xe2, 0xfd, 0x2f, 0x7c, 0xf5, 0xf6, 0xcf, 0x1b, 0xf8, 0x27,
  0xed, 0x2e, 0xe7, 0xa3, 0xe4, 0xe7, 0x15, 0xea, 0x70, 0x0c, 0x81, 0xd0,
  0xb9, 0x10, 0xf9, 0xbf, 0xd9, 0x43, 0xc3, 0xfc, 0x12, 0x7f, 0xd7, 0xda,
  0x25, 0xd7, 0xc7, 0x26, 0x04, 0xe1, 0xda, 0xe8, 0x13, 0xe9, 0x10, 0x1c,
  0xd2, 0x17, 0xd7, 0xcb, 0xa3, 0xf9, 0x03, 0xf8, 0x81, 0x34, 0x51, 0xc0,
  0xe5, 0x31, 0xad, 0x02, 0x1a, 0xcf, 0x22, 0xf1, 0x0f, 0xc6, 0xf3, 0x08,
  0x35, 0xbd, 0xf6, 0xa6, 0xdc, 0xcd, 0xc2, 0xde, 0x6c, 0x1b, 0xf9, 0xdd,
  0x20, 0x43, 0x08, 0xd3, 0xea, 0x1d, 0x3a, 0x81, 0xc9, 0xca, 0xd3, 0x4a,
  0xcc, 0x3e, 0xef, 0x35, 0xdf, 0x1c, 0x60, 0x15, 0xd2, 0xe8, 0x0e, 0xfe,
  0xf9, 0x7f, 0xf7, 0xe3, 0x0e, 0xf1, 0x89, 0x6a, 0x0f, 0x69, 0xd5, 0xde,
  0xdb, 0xb9, 0xc2, 0xa6, 0x06, 0x7f, 0x5c, 0xf7, 0x04, 0x19, 0x0e, 0xd6,
  0xcf, 0xd3, 0x3a, 0xd6, 0x1d, 0x1e, 0xad, 0x23, 0xe8, 0xdd, 0xb3, 0x04,
  0xe4, 0x00, 0x29, 0xe4, 0x0a, 0x39, 0x37, 0x7f, 0xc8, 0xf4, 0xe6, 0x99,
  0x3e, 0xfe, 0x26, 0xf5, 0x14, 0xf1, 0x21, 0x2b, 0x32, 0x05, 0xca, 0xe8,
  0x81, 0x06, 0x28, 0xb9, 0xe8, 0x08, 0xda, 0xed, 0xdf, 0xd1, 0x38, 0x18,
  0x1e, 0xd4, 0x16, 0x24, 0xf3, 0x13, 0x81, 0x58, 0xbb, 0x30, 0xf8, 0x58,
  0xe9, 0xf4, 0x77, 0x07, 0xca, 0x18, 0xf1, 0x63, 0xf3, 0xd3, 0x33, 0xfb,
  0xba, 0x3e, 0x21, 0xd6, 0x13, 0x7f, 0xd0, 0xb7, 0x30, 0xe9, 0x02, 0x04,
  0xee, 0x26, 0xf3, 0xee, 0xe4, 0x88, 0xf8, 0xbc, 0xcc, 0x56, 0x81, 0x23,
  0x4a, 0xd6, 0xe8, 0x5b, 0xc5, 0x2a, 0xe2, 0x0b, 0x18, 0xfb, 0x59, 0x15,
  0x81, 0xec, 0xf7, 0x68, 0xa5, 0xc1, 0x13, 0x29, 0x1d, 0x00, 0xf0, 0x4a,
  0x17, 0xb6, 0x81, 0x01, 0xf3, 0xbc, 0x96, 0x55, 0xcb, 0x0f, 0x21, 0x36,
  0x1b, 0xa7, 0x83, 0xc3, 0x01, 0x68, 0xb3, 0xc3, 0x9f, 0x1b, 0xfe, 0xeb,
  0x5b, 0x15, 0xe1, 0xfb, 0xca, 0xfa, 0x7f, 0xe6, 0x47, 0xde, 0xe8, 0xad,
  0x1a, 0x1b, 0x30, 0x40, 0x1a, 0xc7, 0x2c, 0x7f, 0x12, 0xe0, 0x05, 0x33,
  0xe3, 0xe6, 0x11, 0xc0, 0x01, 0x37, 0xdd, 0xb5, 0xd0, 0xca, 0xb4, 0x10,
  0xeb, 0xe9, 0x2f, 0xd3, 0xbc, 0xab, 0x16, 0x1a, 0x08, 0x0f, 0xda, 0xe7,
  0x3f, 0xd9, 0xd8, 0x81, 0x1e, 0x19, 0x1f, 0x1b, 0x25, 0xd9, 0xc8, 0xc9,
  0xea, 0x0d, 0x05, 0xea, 0xba, 0xed, 0x81, 0xdc, 0xa1, 0x24, 0x95, 0x23,
  0x38, 0xe4, 0xdc, 0x36, 0xf1, 0xc9, 0x2c, 0xff, 0x25, 0xec, 0x29, 0x0a,
  0xee, 0x81, 0xc2, 0xad, 0x0f, 0xb9, 0xdd, 0x1f, 0xed, 0x0d, 0x46, 0xd9,
  0x18, 0x7f, 0x41, 0xbf, 0xc2, 0xd4, 0x86, 0xcc, 0xf4, 0xd4, 0xf7, 0x0d,
  0x99, 0x56, 0x29, 0xf8, 0xd6, 0xda, 0x3f, 0xd8, 0x13, 0xf7, 0xc6, 0xb6,
  0x0c, 0xef, 0x25, 0x2d, 0xfe, 0x1b, 0xf8, 0xe3, 0x44, 0xec, 0x7f, 0x0b,
  0x02, 0x08, 0xfe, 0x18, 0xf2, 0xff, 0xb1, 0x12, 0xe1, 0xc4, 0xdb, 0xfd,
  0x2b, 0x11, 0x7f, 0xba, 0x8b, 0x11, 0xe7, 0x2e, 0x9a, 0xeb, 0x4a, 0x58,
  0x86, 0x10, 0xf9, 0xe0, 0x86, 0xfb, 0x84, 0x51, 0x7f, 0xfd, 0x78, 0xc4,
  0x54, 0x81, 0x0b, 0x41, 0xfc, 0xd0, 0xc8, 0x54, 0x12, 0xba, 0xcd, 0xef,
  0x0d, 0x3c, 0x81, 0x2c, 0x37, 0x27, 0xf8, 0x23, 0xe4, 0x40, 0x03, 0x01,
  0x08, 0xec, 0x03, 0x0f, 0x85, 0x7d, 0x2d, 0xb7, 0x3a, 0x0b, 0xcb, 0xe1,
  0x58, 0x30, 0xb9, 0xf6, 0x57, 0xb7, 0xd6, 0xe3, 0x7f, 0x03, 0x67, 0x0d,
  0xd5, 0xc8, 0xb4, 0xd5, 0x11, 0x49, 0xa3, 0x1d, 0x68, 0x19, 0x08, 0x81,
  0x30, 0x54, 0xd3, 0x35, 0xa7, 0x06, 0x51, 0x1d, 0x3e, 0x04, 0xde, 0x1e,
  0xde, 0x6d, 0x1e, 0xb0, 0x1f, 0x38, 0x93, 0x7a, 0x2d, 0xd5, 0x02, 0xe1,
  0xf7, 0x7f, 0xa5, 0x71, 0x6d, 0xcb, 0x1d, 0x46, 0x36, 0x41, 0x08, 0x0e,
  0xf6, 0x4a, 0x1a, 0xb4, 0xdd, 0xc7, 0x40, 0xd1, 0xd9, 0x21, 0x60, 0x7f,
  0xaf, 0xec, 0xf6, 0xb3, 0xa7, 0xfe, 0x05, 0x34, 0xc4, 0x2d, 0x22, 0xf3,
  0xec, 0x7f, 0xf7, 0xeb, 0x1f, 0xba, 0x5f, 0x13, 0x19, 0x81, 0x44, 0x4b,
  0xd2, 0xe5, 0x61, 0xc0, 0x2b, 0x86, 0x21, 0xf8, 0x04, 0xf2, 0x28, 0x49,
  0xc2, 0x0b, 0xf5, 0xe5, 0xdd, 0x4b, 0x28, 0x44, 0x0f, 0xdd, 0x12, 0xec,
  0x18, 0x20, 0x52, 0xd3, 0x44, 0xfa, 0x9e, 0x7f, 0x6b, 0x35, 0xf3, 0xcb,
  0x23, 0x3c, 0x1f, 0xfc, 0xb1, 0x7f, 0xfa, 0x2f, 0xe2, 0xe5, 0x3f, 0xd0,
  0xa4, 0xaf, 0x1e, 0xdf, 0xeb, 0x1d, 0x05, 0xe1, 0x09, 0xeb, 0xa4, 0xde,
  0xbe, 0x55, 0xf7, 0x0b, 0xfb, 0x02, 0xd6, 0xe7, 0xe6, 0x13, 0x1b, 0x47,
  0x13, 0xed, 0xef, 0x81, 0xe4, 0x77, 0x8b, 0x21, 0x9f, 0x21, 0x02, 0xdf,
  0xcc, 0x14, 0xbd, 0x7f, 0xe2, 0x15, 0xd8, 0xcb, 0xbe, 0x4a, 0x43, 0x38,
  0x7f, 0xe9, 0x0a, 0xf5, 0xae, 0x43, 0x22, 0x17, 0xcb, 0x35, 0x13, 0x0c,
  0x4b, 0xf9, 0xeb, 0xf0, 0x48, 0xfd, 0x05, 0xe3, 0xeb, 0x20, 0x34, 0xd7,
  0xcb, 0x27, 0xe0, 0x81, 0xd4, 0x1e, 0x1c, 0x27, 0x0d, 0xeb, 0xf1, 0x31,
  0xed, 0xe4, 0xff, 0xff, 0xf6, 0x3a, 0x81, 0x17, 0x20, 0x07, 0xcb, 0x42,
  0x15, 0x54, 0xf4, 0xfc, 0xde, 0x29, 0x2f, 0x76, 0xbd, 0x96, 0xcd, 0x49,
  0x4a, 0xe2, 0xeb, 0x45, 0xb9, 0xa0, 0x14, 0xe8, 0xfe, 0x50, 0x41, 0x31,
  0x5f, 0x03, 0x40, 0x7f, 0xf6, 0x2b, 0x25, 0x2f, 0xb7, 0x9a, 0xf4, 0x39,
  0x15, 0x10, 0xd2, 0xe6, 0x75, 0xad, 0xf7, 0x7f, 0x19, 0xf7, 0xfe, 0x25,
  0x70, 0xb9, 0x19, 0x0f, 0xcd, 0x6c, 0x13, 0x58, 0x4c, 0xc2, 0xe3, 0x20,
  0x1c, 0x51, 0xc5, 0x1e, 0xab, 0x03, 0x9f, 0xee, 0x81, 0x21, 0x1c, 0xf0,
  0x96, 0xe4, 0xff, 0xff, 0x04, 0x00, 0x00, 0x00, 0x50, 0x00, 0x00, 0x00,
  0x80, 0x80, 0x80, 0x80, 0x80, 0x80, 0x80, 0x80, 0x80, 0x80, 0x80, 0x80,
  0x80, 0x80, 0x80, 0x80, 0x80, 0x80, 0x80, 0x80, 0x7f, 0x7f, 0x7f, 0x7f,
  0x7f, 0x7f, 0x7f, 0x7f, 0x7f, 0x7f, 0x7f, 0x7f, 0x7f, 0x7f, 0x7f, 0x7f,
  0x7f, 0x7f, 0x7f, 0x7f, 0x80, 0x80, 0x80, 0x80, 0x80, 0x80, 0x80, 0x80,
  0x80, 0x80, 0x80, 0x80, 0x80, 0x80, 0x80, 0x80, 0x80, 0x80, 0x80, 0x80,
  0x80, 0x80, 0x80, 0x80, 0x80, 0x80, 0x80, 0x80, 0x80, 0x80, 0x80, 0x80,
  0x80, 0x80, 0x80, 0x80, 0x80, 0x80, 0x80, 0x80, 0xf2, 0xe4, 0xff, 0xff,
  0x04, 0x00, 0x00, 0x00, 0x40, 0x06, 0x00, 0x00, 0xda, 0x8f, 0x8f, 0xc4,
  0x31, 0x7f, 0x98, 0xce, 0xc3, 0x9e, 0x3a, 0xd5, 0xa1, 0x3b, 0x6c, 0x84,
  0x5b, 0x74, 0xfe, 0xfc, 0x07, 0x76, 0x69, 0x4b, 0xaf, 0x14, 0x07, 0x74,
  0x76, 0xef, 0x4e, 0x5e, 0x68, 0x81, 0x46, 0x5a, 0xf6, 0x0b, 0xa2, 0x04,
  0x98, 0xd5, 0x76, 0xcf, 0xa7, 0x5c, 0x15, 0x51, 0x4a, 0x27, 0x4e, 0xf0,
  0xfa, 0x45, 0x7f, 0x4f, 0x06, 0x28, 0x1c, 0x81, 0xbd, 0xc4, 0xa6, 0x8b,
  0x85, 0x40, 0x84, 0xfa, 0xc1, 0xb8, 0x7f, 0xf5, 0x23, 0x27, 0xed, 0xa6,
  0xc9, 0xc4, 0x38, 0x1e, 0xcc, 0x59, 0xed, 0x8c, 0x5f, 0x95, 0xc3, 0x96,
  0x74, 0x76, 0x7f, 0xf1, 0xd1, 0xce, 0x17, 0x8e, 0xf9, 0x89, 0x3c, 0xa1,
  0xef, 0x2b, 0xe7, 0x3a, 0x5a, 0xe6, 0x7f, 0x00, 0x3f, 0x7a, 0xd3, 0x3d,
  0xe2, 0x63, 0x92, 0xf9, 0xd8, 0xf9, 0x47, 0x91, 0x2c, 0x4b, 0x62, 0x5d,
  0x81, 0x78, 0x2a, 0xcd, 0x88, 0x32, 0x52, 0x15, 0xa1, 0x9e, 0x87, 0x44,
  0xcb, 0xb3, 0x67, 0x8a, 0xee, 0xf8, 0x9f, 0xeb, 0xdb, 0x4e, 0x1f, 0xec,
  0x39, 0xef, 0x7f, 0x0b, 0x6c, 0x5e, 0xaa, 0x28, 0x5a, 0xa7, 0xa6, 0x9c,
  0x90, 0xb1, 0xb5, 0x81, 0xaa, 0x48, 0x6b, 0x5c, 0xc6, 0x72, 0xc4, 0xcc,
  0x20, 0x4b, 0x6e, 0x51, 0xbc, 0xfd, 0x07, 0xa1, 0x20, 0xbd, 0xa0, 0x6d,
  0x58, 0x81, 0x38, 0x70, 0x61, 0x62, 0x43, 0x1f, 0x7f, 0xa7, 0x91, 0x65,
  0xe0, 0xb3, 0x99, 0xee, 0xff, 0xda, 0xc8, 0x81, 0x3b, 0xc2, 0x3d, 0xfc,
  0x98, 0x5c, 0xa5, 0xb8, 0xac, 0x38, 0xe6, 0xe5, 0x88, 0x96, 0xc9, 0x76,
  0x81, 0x77, 0xc2, 0x8c, 0x36, 0xce, 0x73, 0x40, 0x2c, 0x70, 0xb5, 0x6b,
  0x03, 0xae, 0xe6, 0xc8, 0x2c, 0xb7, 0xac, 0xbd, 0x1f, 0x43, 0xf1, 0x55,
  0x2d, 0x92, 0xea, 0x69, 0x2f, 0xc8, 0x5b, 0x1d, 0xc7, 0x49, 0xc1, 0x81,
  0x33, 0xd8, 0x00, 0x42, 0x39, 0x66, 0xa2, 0x30, 0x81, 0x0f, 0x3d, 0x31,
  0xd0, 0x61, 0xf3, 0xf5, 0xe2, 0xca, 0x6b, 0xb4, 0x15, 0x1e, 0x4a, 0xfb,
  0x47, 0x8e, 0xf8, 0x58, 0x38, 0x2f, 0x17, 0xa4, 0xbd, 0xa4, 0x84, 0x7f,
  0x0d, 0x9a, 0x24, 0xb2, 0xe7, 0x7b, 0x13, 0xe9, 0xbc, 0xf7, 0x7a, 0xd9,
  0xf8, 0xae, 0x73, 0x30, 0x02, 0x2d, 0xec, 0x84, 0x4e, 0x6a, 0x6f, 0xb6,
  0x36, 0xa8, 0xb3, 0x7f, 0x52, 0x14, 0x71, 0x59, 0x1b, 0xde, 0x59, 0xf2,
  0x5c, 0xef, 0x73, 0x7f, 0xe3, 0x8c, 0x02, 0x72, 0xef, 0x6c, 0x10, 0x1c,
  0x7f, 0x37, 0x0f, 0x56, 0xed, 0xf4, 0x82, 0x82, 0x7e, 0xd2, 0xb3, 0xbb,
  0xe5, 0xb4, 0x47, 0x3d, 0x47, 0x2e, 0x74, 0x51, 0xae, 0xa1, 0xe9, 0x7f,
  0x6d, 0xc3, 0x33, 0x8a, 0x89, 0xc5, 0x36, 0x2c, 0xc0, 0x26, 0x0c, 0xfe,
  0x63, 0x8a, 0xc5, 0xaa, 0x13, 0xe6, 0xc5, 0xa0, 0xa3, 0xab, 0xf8, 0x07,
  0x23, 0x00, 0x45, 0xbf, 0x52, 0x5f, 0xbe, 0x03, 0x7f, 0x4d, 0xc5, 0xb2,
  0x6e, 0x02, 0x90, 0x02, 0x6a, 0x4e, 0x90, 0x8e, 0x63, 0x0d, 0x21, 0x0a,
  0x54, 0x44, 0x81, 0x95, 0xf7, 0x32, 0xfd, 0x56, 0x81, 0x1a, 0x06, 0xf4,
  0xbe, 0x92, 0xe7, 0x7f, 0x28, 0x8f, 0xe2, 0xf4, 0x47, 0x1c, 0x2d, 0xda,
  0x03, 0x91, 0xdd, 0x34, 0x10, 0x7d, 0xa6, 0xfb, 0xa4, 0x81, 0x93, 0xe1,
  0x13, 0x21, 0xd2, 0x0c, 0x73, 0xc7, 0xd9, 0x7f, 0xc2, 0x11, 0xa4, 0x12,
  0x94, 0x96, 0x1d, 0x5f, 0x8d, 0xe5, 0xcc, 0xde, 0x6b, 0xc0, 0xe6, 0x3c,
  0x81, 0x99, 0xf8, 0x6b, 0x3a, 0xde, 0x27, 0x06, 0x1d, 0xd3, 0x42, 0xd3,
  0x4b, 0x6f, 0x6c, 0xe0, 0x78, 0x0e, 0xff, 0xbe, 0xf5, 0x1a, 0x52, 0xb3,
  0x51, 0x56, 0x81, 0xf0, 0x13, 0x96, 0xea, 0x16, 0xba, 0x73, 0x11, 0x07,
  0xaf, 0xe8, 0x7f, 0x75, 0xa7, 0x9c, 0xa6, 0x03, 0x71, 0x44, 0x6a, 0xff,
  0x1d, 0x89, 0xfe, 0xb5, 0x79, 0xf9, 0x5f, 0x1b, 0xd2, 0x7f, 0x7c, 0x77,
  0x90, 0x1f, 0x40, 0x46, 0xfa, 0xfe, 0x8a, 0x5a, 0x5e, 0xfb, 0x17, 0xb8,
  0x60, 0x02, 0x19, 0xd1, 0x27, 0x5f, 0x9a, 0x7f, 0xec, 0x0d, 0x1f, 0xc4,
  0xce, 0xf3, 0x88, 0x65, 0x87, 0xf5, 0xe0, 0x1c, 0x02, 0xec, 0x91, 0xf8,
  0x96, 0x22, 0x28, 0xc4, 0x1e, 0x45, 0x63, 0x49, 0x4f, 0x0b, 0x7f, 0x66,
  0x56, 0x0a, 0xe7, 0xea, 0x3f, 0x2b, 0x51, 0x47, 0x81, 0x1d, 0x19, 0x50,
  0xa3, 0x65, 0x6d, 0x2a, 0xad, 0x45, 0x4a, 0xce, 0xca, 0x7f, 0x90, 0x79,
  0xeb, 0x15, 0x4d, 0x41, 0x14, 0xc1, 0xcd, 0x86, 0xec, 0x37, 0x6c, 0x28,
  0xbf, 0x89, 0x0d, 0x54, 0x24, 0xd9, 0x95, 0x41, 0x7f, 0x00, 0x26, 0xec,
  0x14, 0x60, 0x67, 0xd3, 0xf7, 0x0d, 0x5a, 0xaa, 0x59, 0x2c, 0xcb, 0xf0,
  0xcb, 0x56, 0x81, 0x74, 0xf8, 0xe2, 0x98, 0x63, 0x85, 0x14, 0x0d, 0x6c,
  0xfb, 0x62, 0x15, 0x4d, 0xd3, 0x44, 0x74, 0x50, 0xef, 0xbd, 0xab, 0xe1,
  0x79, 0xd7, 0x2a, 0x0a, 0xb3, 0x81, 0x0b, 0x70, 0xe8, 0xfc, 0x75, 0x2b,
  0x5d, 0xa1, 0x12, 0xb6, 0x2d, 0x61, 0xe0, 0xa7, 0xd8, 0x1f, 0x26, 0xc5,
  0x81, 0x12, 0xda, 0x64, 0xfc, 0xe9, 0x2d, 0xce, 0x1a, 0xde, 0xd5, 0x68,
  0x56, 0x2c, 0x22, 0x39, 0x0d, 0xb5, 0xf9, 0xea, 0x7f, 0x3b, 0xa3, 0xd6,
  0x5c, 0xb7, 0x6d, 0xf0, 0xdd, 0x1c, 0xeb, 0xe0, 0x78, 0x4b, 0x2c, 0x6e,
  0x1f, 0x7b, 0x40, 0x54, 0xd0, 0x81, 0xfe, 0x6b, 0x39, 0xfa, 0x52, 0xae,
  0x4c, 0x02, 0x5c, 0x7d, 0x68, 0x63, 0xe0, 0xb4, 0x28, 0x24, 0x05, 0x7f,
  0xbc, 0xd2, 0x0c, 0x19, 0x56, 0x34, 0xb9, 0x3e, 0x4a, 0x64, 0xc6, 0x0d,
  0x88, 0xe5, 0xf7, 0x8f, 0xde, 0xe0, 0x8a, 0x81, 0x2a, 0x3a, 0x6c, 0x63,
  0xba, 0x4b, 0x38, 0xdd, 0x59, 0x77, 0xa7, 0xfd, 0xf8, 0x0d, 0x23, 0xfa,
  0xcb, 0x02, 0xc7, 0xdd, 0x12, 0x7f, 0xe6, 0x46, 0x95, 0x6d, 0xcc, 0x64,
  0x7a, 0x5a, 0x8c, 0xbe, 0xf8, 0x39, 0x0a, 0x98, 0x81, 0xa6, 0x61, 0x52,
  0x10, 0x98, 0x47, 0xb2, 0x10, 0x3f, 0xdc, 0x56, 0xad, 0x94, 0x67, 0xa9,
  0x08, 0x70, 0x8b, 0x4f, 0x81, 0x54, 0xf7, 0x4e, 0x34, 0x99, 0x33, 0x3c,
  0x99, 0x44, 0x77, 0x72, 0x1f, 0x7b, 0x97, 0xc9, 0x3d, 0xef, 0x10, 0xd9,
  0x4c, 0x8f, 0x45, 0xbf, 0x76, 0x78, 0x9f, 0xcf, 0x92, 0x2c, 0x81, 0x1c,
  0xe7, 0xd2, 0xd2, 0x35, 0x5d, 0xcf, 0xc4, 0xe1, 0x99, 0x7f, 0xb5, 0x2f,
  0xd5, 0xa0, 0xd9, 0x94, 0xab, 0x30, 0x36, 0xfb, 0xb4, 0xb6, 0x10, 0x4e,
  0xc4, 0x0a, 0xd3, 0x9a, 0xb3, 0x70, 0xc8, 0xf1, 0xa3, 0xbf, 0xf0, 0x2a,
  0x81, 0xa0, 0x62, 0xcb, 0x26, 0x5f, 0x38, 0x38, 0x1a, 0x95, 0xe4, 0xa8,
  0x4e, 0x09, 0x3f, 0xf5, 0x8b, 0x53, 0xde, 0x4a, 0xb7, 0x1f, 0x84, 0x70,
  0x94, 0x02, 0xaa, 0x81, 0x7b, 0x56, 0x46, 0xf7, 0xf3, 0xa8, 0x37, 0x87,
  0xaa, 0x51, 0xb3, 0xa9, 0xd2, 0x81, 0x59, 0x3f, 0xf1, 0x2c, 0xf7, 0x8c,
  0xe4, 0x49, 0xc2, 0xa3, 0x03, 0xce, 0x8e, 0x2e, 0x97, 0xe3, 0x51, 0x7f,
  0x05, 0xe2, 0x32, 0x8f, 0xa7, 0x6c, 0x67, 0x98, 0x84, 0x27, 0xba, 0xd3,
  0x9d, 0x88, 0xb0, 0x7f, 0x8e, 0xa3, 0x31, 0x4f, 0xc1, 0x4b, 0x10, 0xdd,
  0x0e, 0xbc, 0xe1, 0x3d, 0x10, 0x0e, 0xf5, 0xbd, 0x50, 0x5d, 0x84, 0x52,
  0x42, 0x7f, 0xcf, 0xe8, 0xee, 0x68, 0x4f, 0xb8, 0xb7, 0x62, 0xfc, 0x8c,
  0xf2, 0xb6, 0x36, 0xcc, 0x7f, 0x55, 0x24, 0xfb, 0x8d, 0xa2, 0x99, 0xb0,
  0x75, 0xd8, 0x2f, 0x57, 0x4b, 0x2f, 0xbd, 0x84, 0x5f, 0x44, 0x06, 0x7f,
  0x5e, 0xca, 0xa4, 0xe3, 0x78, 0xd3, 0x89, 0xba, 0xfd, 0x09, 0xbd, 0x43,
  0x6b, 0x11, 0x11, 0x86, 0x3b, 0x74, 0x27, 0x62, 0x6d, 0x4b, 0xac, 0x64,
  0x20, 0x88, 0x81, 0x39, 0x27, 0x4d, 0x10, 0x01, 0x69, 0x86, 0x43, 0x72,
  0xa8, 0x0b, 0x2c, 0xbe, 0x6f, 0xe3, 0x5f, 0x3e, 0xb4, 0x7f, 0x17, 0x39,
  0x2b, 0x0e, 0x7a, 0x42, 0xaa, 0x6f, 0x28, 0x1d, 0x8b, 0x6b, 0x7f, 0x20,
  0xc7, 0xf3, 0x3a, 0x36, 0xc2, 0x5c, 0xe1, 0x0e, 0x10, 0xd1, 0xf5, 0xe6,
  0xf0, 0xed, 0xc3, 0x96, 0x11, 0xbb, 0x1f, 0xea, 0x7c, 0x03, 0x30, 0xe0,
  0x0d, 0x81, 0x1c, 0x25, 0xdc, 0x2a, 0xbc, 0xc5, 0xa6, 0x2f, 0x60, 0x51,
  0xbb, 0xcf, 0xb9, 0xbd, 0x1f, 0xd8, 0x1a, 0x22, 0x7f, 0xc2, 0x19, 0x37,
  0x72, 0xb5, 0xcd, 0xda, 0xbb, 0x61, 0xc0, 0x09, 0xac, 0xf4, 0x7f, 0x99,
  0xdc, 0xf1, 0x16, 0x3d, 0xd9, 0x39, 0x73, 0x85, 0x7d, 0x0f, 0xe0, 0x03,
  0x55, 0xb2, 0x6c, 0x66, 0x0c, 0xcc, 0xcc, 0xce, 0xd1, 0x0b, 0x2a, 0x81,
  0xb1, 0x31, 0xc4, 0x92, 0x7e, 0xae, 0x39, 0x54, 0x9e, 0x1e, 0xdc, 0xc7,
  0x14, 0xc7, 0xf9, 0x84, 0x08, 0x2b, 0x32, 0xb0, 0x62, 0x6b, 0x81, 0x9e,
  0xd3, 0xf2, 0x14, 0xc5, 0xd8, 0x0c, 0x7f, 0x73, 0x0b, 0x13, 0xfb, 0xa5,
  0x49, 0x6c, 0x98, 0x94, 0x1d, 0x83, 0xfb, 0x64, 0x92, 0xb0, 0xc5, 0x04,
  0x3d, 0x60, 0x81, 0xb6, 0x8b, 0x66, 0x28, 0xe6, 0x02, 0x7f, 0xc4, 0xc5,
  0x73, 0xce, 0xea, 0x69, 0x51, 0x9e, 0x23, 0x4d, 0x1e, 0x1d, 0x2b, 0x66,
  0x3a, 0x8e, 0xdb, 0xa6, 0x47, 0x91, 0x76, 0x51, 0x1c, 0xab, 0x36, 0xed,
  0x81, 0x86, 0x7e, 0x74, 0x86, 0xc8, 0x51, 0x4d, 0x0b, 0xd4, 0xca, 0x81,
  0xf5, 0x28, 0x05, 0x1b, 0x76, 0xba, 0x4c, 0x38, 0x3e, 0x48, 0x68, 0x03,
  0x30, 0x6b, 0x2e, 0x0e, 0x0a, 0x5f, 0xe1, 0xfe, 0xdb, 0x81, 0x20, 0xf3,
  0x93, 0x48, 0x77, 0xaf, 0xf4, 0x04, 0xcd, 0x73, 0x59, 0x1c, 0xb7, 0x4e,
  0xd1, 0xb8, 0xa3, 0xbc, 0x32, 0xd2, 0x60, 0xd5, 0x65, 0xe9, 0x45, 0xae,
  0xc0, 0xa0, 0x92, 0xcf, 0x4b, 0x2f, 0xec, 0x81, 0x27, 0x76, 0xb4, 0xa5,
  0x1d, 0xce, 0x7f, 0x3a, 0x11, 0xad, 0xba, 0x5d, 0xa1, 0x45, 0x61, 0xa0,
  0xe6, 0x3f, 0x10, 0x49, 0xb4, 0x11, 0x0b, 0x8e, 0x75, 0x21, 0x81, 0x82,
  0xfb, 0xa2, 0x30, 0x27, 0x46, 0x84, 0x3a, 0x7a, 0x6b, 0x18, 0x33, 0xaa,
  0x3d, 0x6a, 0xc5, 0x58, 0xc4, 0x45, 0xc5, 0x42, 0xd6, 0xbd, 0xca, 0xf5,
  0x95, 0xb3, 0x4b, 0xb5, 0x81, 0x1c, 0x95, 0xdc, 0xf6, 0x20, 0x9c, 0xe5,
  0x82, 0xe3, 0x2b, 0xd2, 0xb6, 0x81, 0xb9, 0xf8, 0x25, 0x9e, 0x0d, 0x51,
  0x14, 0xe3, 0x73, 0xfd, 0x3d, 0x42, 0x90, 0xf0, 0xe7, 0x1e, 0x8b, 0xd3,
  0x7f, 0x7c, 0x34, 0xc4, 0x62, 0x39, 0x15, 0x3e, 0x07, 0x8f, 0x78, 0x3f,
  0x7a, 0x47, 0x9e, 0xc9, 0x24, 0x06, 0x69, 0xff, 0x6d, 0x1d, 0xd4, 0x81,
  0x82, 0x1e, 0xf4, 0xa1, 0xcc, 0x92, 0xa8, 0x5d, 0xe5, 0x1b, 0x81, 0xb8,
  0x02, 0x03, 0xde, 0xa1, 0x16, 0x7d, 0x86, 0x91, 0xa2, 0x9d, 0x1b, 0xce,
  0xfe, 0x7f, 0xe6, 0x22, 0x52, 0x93, 0x18, 0x22, 0x8f, 0x07, 0xfd, 0x54,
  0xa6, 0x45, 0xa1, 0x3f, 0x11, 0xb9, 0xf4, 0x8d, 0x7d, 0x7f, 0xb6, 0xfa,
  0x8e, 0xbd, 0x21, 0xc9, 0x81, 0x19, 0xf0, 0x11, 0x9f, 0xb5, 0xad, 0x8a,
  0xac, 0x5c, 0xc4, 0x30, 0x58, 0x49, 0x68, 0xf3, 0xc2, 0x6b, 0xe4, 0x11,
  0x0d, 0xd9, 0x7f, 0x5a, 0x29, 0xe6, 0x7b, 0x74, 0xd4, 0x6b, 0xf2, 0xbd,
  0x55, 0xd0, 0xe2, 0xca, 0x9f, 0xe4, 0x68, 0x65, 0x8a, 0xb4, 0x3c, 0x83,
  0x81, 0x9a, 0x6e, 0x9c, 0x1e, 0x52, 0xb9, 0x98, 0xb1, 0x9c, 0xf0, 0xfe,
  0x81, 0xd0, 0x55, 0x64, 0xe0, 0xfc, 0xb6, 0xf5, 0xa0, 0x75, 0x9c, 0xc9,
  0x0a, 0xab, 0xd3, 0xd4, 0x86, 0x7d, 0xbc, 0xd1, 0x7c, 0x62, 0xda, 0xed,
  0x82, 0x9f, 0xd4, 0xd7, 0xf5, 0xc6, 0x7f, 0x6b, 0xee, 0xf2, 0x0a, 0x6c,
  0x22, 0xc9, 0x6b, 0xf9, 0xfa, 0x86, 0xbf, 0xf2, 0xef, 0xad, 0x07, 0xfc,
  0xad, 0xea, 0x2c, 0x81, 0x58, 0x2a, 0x31, 0xbf, 0x86, 0xe2, 0x0d, 0x5e,
  0x3e, 0xeb, 0xff, 0xff, 0x04, 0x00, 0x00, 0x00, 0x40, 0x06, 0x00, 0x00,
  0x2a, 0x38, 0x07, 0x33, 0x21, 0x0f, 0xe6, 0x05, 0xf7, 0x81, 0x16, 0x13,
  0x47, 0x57, 0x2c, 0xab, 0xcf, 0xe5, 0xe6, 0x88, 0xf5, 0xd8, 0xa4, 0x42,
  0xde, 0x0f, 0xd9, 0xe0, 0x6d, 0xc3, 0xc8, 0xbf, 0xd5, 0xa1, 0xa4, 0x7f,
  0xae, 0x05, 0x28, 0x68, 0x3d, 0x41, 0xfb, 0xd6, 0x29, 0x44, 0x83, 0x10,
  0xcd, 0xe5, 0xde, 0xea, 0xd4, 0xd3, 0x5e, 0x16, 0x7f, 0xa9, 0xfd, 0x17,
  0x22, 0x7f, 0x04, 0x11, 0xc1, 0xe3, 0xf5, 0xd3, 0x01, 0xf9, 0xd8, 0x04,
  0x07, 0x0e, 0x48, 0xdf, 0x1c, 0x10, 0x20, 0x2c, 0x1a, 0x17, 0x5a, 0x7f,
  0xfa, 0xf8, 0x20, 0x16, 0x29, 0x07, 0xd0, 0x20, 0x0a, 0x4e, 0xe1, 0x14,
  0x5d, 0xda, 0x47, 0xc5, 0xc4, 0x21, 0xf1, 0x23, 0x7f, 0xc0, 0x91, 0x20,
  0xda, 0x32, 0xe5, 0x77, 0x59, 0x24, 0x12, 0x1d, 0xf6, 0x2c, 0xea, 0x55,
  0x9e, 0x41, 0xca, 0x2e, 0x02, 0x38, 0xe7, 0x46, 0xeb, 0x24, 0xe0, 0x7f,
  0x1c, 0x13, 0xce, 0x06, 0xee, 0x33, 0x32, 0xbc, 0xd7, 0xf8, 0x2b, 0x15,
  0xf5, 0xc2, 0x59, 0xc3, 0xda, 0x15, 0x14, 0xeb, 0xef, 0x3b, 0x2a, 0x31,
  0x0d, 0x81, 0x0e, 0x04, 0x57, 0xec, 0x38, 0xb9, 0x34, 0x39, 0x44, 0x77,
  0x92, 0xf6, 0x05, 0x7f, 0xd8, 0x15, 0x9b, 0xcb, 0x57, 0xb2, 0x5d, 0xf1,
  0xb5, 0x3a, 0x15, 0xc0, 0x0f, 0xeb, 0x90, 0xfc, 0xe6, 0x2b, 0x37, 0x72,
  0x31, 0xbf, 0x1f, 0x1f, 0x7f, 0xcd, 0xc4, 0xe2, 0x32, 0x7f, 0xe5, 0x15,
  0xb1, 0x42, 0xe7, 0x1a, 0x21, 0xf4, 0x3d, 0x90, 0x2f, 0xfa, 0xa5, 0xf5,
  0x23, 0x2a, 0x2f, 0x39, 0x05, 0x76, 0x2f, 0x72, 0x7f, 0x41, 0x1e, 0x00,
  0x02, 0xcc, 0x24, 0x75, 0x90, 0xe2, 0x08, 0x6e, 0xb2, 0x33, 0xdc, 0x0e,
  0x37, 0x1f, 0xb3, 0xc7, 0x3c, 0x3a, 0x18, 0x96, 0x29, 0x73, 0x3e, 0x21,
  0xa2, 0x6f, 0xfc, 0x6e, 0xf1, 0x7f, 0xab, 0xce, 0x23, 0x4f, 0x7f, 0x24,
  0x28, 0x52, 0x2c, 0xf0, 0xd1, 0x27, 0xe4, 0xce, 0x2e, 0xe0, 0x2d, 0xe7,
  0xef, 0x11, 0x2b, 0x39, 0xd5, 0xe0, 0x02, 0x25, 0x68, 0xb8, 0x66, 0xe2,
  0x13, 0x91, 0x81, 0x31, 0x2d, 0x96, 0x4b, 0xe0, 0xfb, 0xeb, 0x0e, 0x4c,
  0xfb, 0x31, 0x6e, 0x7f, 0x03, 0xde, 0xf2, 0x4c, 0x4e, 0xf2, 0x56, 0xe9,
  0xd6, 0xbf, 0xf7, 0x0a, 0xca, 0xc3, 0xdb, 0xab, 0xd5, 0xce, 0xa2, 0xfa,
  0x24, 0xd2, 0x7f, 0xf4, 0xe4, 0x9f, 0xcb, 0x07, 0xe4, 0xce, 0xe5, 0xaf,
  0x0d, 0xd2, 0x07, 0x90, 0x81, 0x5f, 0x46, 0x04, 0xc7, 0xdd, 0x09, 0xff,
  0xa2, 0x21, 0xf9, 0x02, 0xe4, 0x0b, 0x00, 0xad, 0xfb, 0xfb, 0xe9, 0x2c,
  0xe0, 0x76, 0xe8, 0xcd, 0x0d, 0x43, 0x2b, 0x7f, 0x30, 0x3a, 0xe2, 0x9a,
  0x8e, 0xd8, 0xbd, 0x87, 0xfe, 0xf1, 0xdd, 0xc7, 0x10, 0xbc, 0x40, 0x81,
  0xa7, 0xff, 0xed, 0xaf, 0xfa, 0xe7, 0x9a, 0x1f, 0x0b, 0xb3, 0xd3, 0x76,
  0x07, 0xc6, 0x4c, 0xdb, 0xb1, 0x42, 0xef, 0xdd, 0x5f, 0x01, 0x19, 0xff,
  0x76, 0x56, 0xf4, 0xa1, 0x81, 0x2f, 0xc6, 0xc3, 0xb3, 0xf5, 0xa7, 0xf4,
  0x30, 0xe1, 0x4f, 0x05, 0x59, 0xf1, 0x1b, 0x71, 0x96, 0x96, 0xe4, 0x9c,
  0xfc, 0xe0, 0x21, 0x7f, 0xcf, 0xb8, 0x14, 0x02, 0xde, 0xbc, 0x17, 0x78,
  0xcb, 0x69, 0xec, 0xb9, 0x08, 0xce, 0x46, 0x18, 0xe4, 0xaa, 0x15, 0x81,
  0xdd, 0xca, 0xa5, 0xf5, 0xce, 0xce, 0x07, 0xde, 0x27, 0xec, 0x97, 0x5b,
  0x1e, 0x4e, 0x81, 0xae, 0xf1, 0xd4, 0x0a, 0xc7, 0x1e, 0xb8, 0x3f, 0xf7,
  0xbb, 0x01, 0xcd, 0x3f, 0x33, 0xe0, 0xc3, 0x01, 0xb8, 0x1f, 0xd5, 0xe3,
  0x08, 0xe9, 0x20, 0x7f, 0x27, 0xec, 0xad, 0xb4, 0x5e, 0xc1, 0x7f, 0x40,
  0x84, 0xe9, 0x82, 0x11, 0xd1, 0xfa, 0xee, 0x1d, 0xd1, 0x65, 0xf6, 0xe5,
  0x88, 0x0f, 0x0a, 0xff, 0x13, 0xfb, 0xe3, 0x14, 0xb8, 0x8a, 0xb0, 0xe7,
  0xec, 0xc2, 0x48, 0x57, 0xa7, 0xf7, 0xf0, 0x2b, 0xf3, 0xd7, 0xf8, 0x7f,
  0x4f, 0x04, 0xe9, 0x2a, 0x49, 0xf1, 0x45, 0xe6, 0xe1, 0x1c, 0xf1, 0x24,
  0xcf, 0x14, 0xd3, 0xd6, 0xde, 0x81, 0xea, 0x9a, 0x1b, 0xf3, 0x49, 0x0f,
  0xa4, 0xe0, 0xd6, 0xf6, 0xfc, 0x14, 0xdf, 0x2d, 0x8d, 0xe6, 0x0c, 0x57,
  0x04, 0x0c, 0x11, 0x81, 0xca, 0x58, 0xee, 0xf2, 0xf9, 0xec, 0x28, 0x1a,
  0x35, 0xfe, 0xca, 0xef, 0x02, 0x1a, 0x4f, 0xe3, 0x43, 0x7f, 0x3c, 0xf6,
  0x5b, 0xd8, 0xc6, 0x35, 0x02, 0xc4, 0x97, 0xf9, 0x0d, 0x7f, 0x2e, 0x9d,
  0xd5, 0xcb, 0xcc, 0xcf, 0x32, 0xc2, 0x2f, 0xbe, 0x17, 0x2b, 0xe2, 0xd4,
  0xe1, 0xdb, 0x37, 0x97, 0x25, 0xb8, 0x2b, 0xfc, 0x16, 0x3d, 0x9d, 0x2d,
  0x2c, 0x81, 0x57, 0xbc, 0xf5, 0xc6, 0x03, 0x1b, 0xea, 0xd6, 0x7f, 0x07,
  0x08, 0x6d, 0x14, 0xd2, 0xd5, 0x07, 0x0b, 0x2c, 0x96, 0x39, 0x6b, 0xed,
  0xc2, 0x81, 0xff, 0x9c, 0x04, 0x29, 0x3d, 0x4f, 0xab, 0x19, 0xf5, 0x64,
  0x96, 0x57, 0xcc, 0xc1, 0x29, 0x24, 0xae, 0xf0, 0xff, 0x40, 0xf5, 0xc1,
  0xd5, 0x48, 0x07, 0xdb, 0x0b, 0x93, 0xd0, 0xfd, 0x29, 0x7f, 0xdc, 0x3c,
  0xf2, 0x0a, 0x14, 0xf8, 0x29, 0x03, 0xe2, 0x99, 0x81, 0xb8, 0xc9, 0xfd,
  0xfa, 0x21, 0x64, 0x11, 0xe7, 0x54, 0x46, 0xeb, 0xc9, 0x32, 0xed, 0x0c,
  0xf3, 0xcb, 0x9d, 0x28, 0xee, 0x34, 0xc2, 0xc3, 0x3e, 0x19, 0xec, 0x3c,
  0xed, 0x7f, 0x51, 0x1e, 0x40, 0xef, 0x4c, 0xf0, 0xe1, 0x2c, 0x8b, 0x62,
  0x07, 0x27, 0xf8, 0x7b, 0xe8, 0xe5, 0x7f, 0x13, 0x36, 0x31, 0x48, 0xfb,
  0x08, 0xe5, 0x1b, 0xf8, 0xaa, 0xf9, 0x2b, 0x12, 0x2e, 0x3a, 0xfb, 0xd3,
  0x63, 0xd9, 0x3d, 0x25, 0xbf, 0xd7, 0xc5, 0xbd, 0x7f, 0xf9, 0x5c, 0x26,
  0x34, 0x07, 0x03, 0xf9, 0x0a, 0xe4, 0xc1, 0x57, 0x3c, 0x81, 0x1f, 0x02,
  0xa8, 0xc7, 0xd5, 0x12, 0x0b, 0x24, 0x0c, 0xf1, 0xcc, 0x14, 0x1a, 0x15,
  0xe7, 0xfa, 0x20, 0x0a, 0x7f, 0x18, 0x0f, 0x2a, 0x22, 0x1d, 0x2c, 0x24,
  0xbf, 0x09, 0x0e, 0xa2, 0xae, 0xe7, 0x32, 0x2a, 0xf0, 0xe9, 0xb7, 0x35,
  0xf6, 0x4b, 0x34, 0x43, 0x61, 0xeb, 0xdb, 0xb0, 0xc3, 0xa1, 0x7f, 0x2a,
  0xa7, 0x00, 0x13, 0xff, 0xcc, 0xf7, 0xbc, 0x75, 0x28, 0x81, 0x2e, 0xf2,
  0xd8, 0xf5, 0x19, 0xd9, 0x2e, 0xae, 0xe5, 0x36, 0x17, 0x0a, 0x70, 0xf5,
  0xe8, 0xd9, 0xbf, 0xd9, 0x7c, 0x4f, 0xe6, 0x16, 0x01, 0x48, 0x88, 0x29,
  0x1b, 0x81, 0xa8, 0x30, 0x7f, 0x61, 0x0a, 0x20, 0x24, 0xac, 0x49, 0x77,
  0x60, 0x58, 0xf2, 0x2a, 0xa9, 0x13, 0x39, 0xcf, 0x2b, 0x03, 0x57, 0x4e,
  0xff, 0xc7, 0x05, 0xea, 0x62, 0x81, 0xf5, 0x52, 0xf8, 0xd6, 0x22, 0x28,
  0x37, 0xce, 0x37, 0x01, 0x06, 0x53, 0x3d, 0xdc, 0x13, 0xd5, 0x81, 0x61,
  0xc9, 0x18, 0xf1, 0x30, 0xff, 0x1a, 0xb6, 0xc7, 0x4a, 0xeb, 0xb9, 0xda,
  0x1e, 0xf6, 0xa4, 0xde, 0xc1, 0x1f, 0x34, 0xca, 0x33, 0xe4, 0xaf, 0x1b,
  0x7f, 0xed, 0xbb, 0x00, 0xf1, 0x14, 0xec, 0x17, 0xd3, 0xf7, 0xb5, 0xc8,
  0x22, 0xca, 0x0b, 0xf0, 0xf0, 0xeb, 0x38, 0x1e, 0x7f, 0x30, 0x17, 0x24,
  0x38, 0x22, 0x3d, 0xdf, 0x3c, 0xde, 0xd2, 0x2c, 0x00, 0xe9, 0x00, 0xf9,
  0x1a, 0xdb, 0x12, 0xba, 0x29, 0x25, 0x6a, 0xc2, 0x41, 0x9a, 0xaa, 0x06,
  0xcf, 0x7f, 0xd8, 0x23, 0xf1, 0xef, 0xb7, 0x4c, 0x01, 0xb4, 0xa9, 0xbc,
  0xda, 0xb8, 0xd4, 0xf5, 0xa2, 0x3f, 0x08, 0x81, 0xc4, 0x41, 0x5e, 0xd8,
  0xe8, 0xfb, 0x12, 0xf3, 0xda, 0x7f, 0xbf, 0xeb, 0x03, 0xdb, 0xad, 0xc3,
  0xb7, 0x4c, 0x43, 0xf1, 0xa1, 0xa0, 0x28, 0x50, 0x07, 0x18, 0xf6, 0x3d,
  0xf9, 0x45, 0xab, 0x66, 0xdf, 0x30, 0xad, 0x29, 0x58, 0x5d, 0x81, 0x4d,
  0x04, 0x32, 0xe5, 0x05, 0x7f, 0x6e, 0xaf, 0x26, 0xfb, 0xc8, 0x29, 0x49,
  0xec, 0x30, 0x72, 0x1f, 0x36, 0xcd, 0x40, 0x22, 0xfb, 0x84, 0xae, 0xdc,
  0xf1, 0xd8, 0x0e, 0x2d, 0xe1, 0x7f, 0x21, 0x0e, 0x0f, 0xe8, 0x02, 0x08,
  0xd1, 0x10, 0xf8, 0x2d, 0x15, 0x1b, 0xb7, 0x26, 0x57, 0xb3, 0x62, 0x7f,
  0x29, 0x62, 0xf3, 0x2f, 0xca, 0x0d, 0x52, 0xf3, 0x20, 0x1a, 0xcb, 0x13,
  0xb5, 0x3d, 0x02, 0xe5, 0x4d, 0xda, 0xcb, 0x75, 0x1c, 0x81, 0x2c, 0x10,
  0x07, 0x08, 0x9a, 0x18, 0xd9, 0x7a, 0xe7, 0x01, 0x4e, 0x32, 0xc5, 0x5f,
  0x34, 0xf5, 0xdc, 0x1f, 0x26, 0x55, 0xd5, 0x1c, 0xcb, 0x24, 0x4c, 0x1e,
  0xdd, 0x2f, 0x13, 0x24, 0xb8, 0x43, 0x7f, 0x44, 0x1c, 0x29, 0x1a, 0xf5,
  0x56, 0x0c, 0xc2, 0x20, 0x39, 0xcb, 0x1a, 0x95, 0x1f, 0x2e, 0x7f, 0x04,
  0xd7, 0xe5, 0x08, 0xb5, 0xe2, 0x38, 0xf1, 0x31, 0x13, 0x33, 0xd7, 0xfa,
  0x44, 0x31, 0xd0, 0x7f, 0xfd, 0xa7, 0x2f, 0x2e, 0xcd, 0xdf, 0x0f, 0xef,
  0x32, 0x55, 0xb4, 0xaf, 0x91, 0x36, 0x00, 0x07, 0xdd, 0xe0, 0xe2, 0xdf,
  0x2c, 0x81, 0x20, 0x2c, 0x59, 0x15, 0x54, 0xe7, 0xc3, 0x7f, 0xfb, 0xf9,
  0xee, 0xc3, 0x3f, 0x3c, 0x0a, 0x27, 0x4d, 0xc9, 0xaf, 0x02, 0xef, 0x6f,
  0xf5, 0xca, 0x08, 0x69, 0xe7, 0x0a, 0x5e, 0x1e, 0xbc, 0xf8, 0xde, 0xb1,
  0xfe, 0xca, 0x7f, 0xf2, 0x5c, 0x5e, 0xc5, 0xe5, 0x57, 0x0d, 0xf8, 0xc5,
  0x58, 0x42, 0x38, 0x36, 0x28, 0xf7, 0x29, 0xd2, 0x04, 0xde, 0xc6, 0x1f,
  0xe0, 0xdc, 0x0e, 0xd8, 0x81, 0xd1, 0xfd, 0x40, 0x34, 0xa5, 0x36, 0xb1,
  0xa5, 0xe7, 0xc6, 0x18, 0xf6, 0x36, 0xd2, 0x1d, 0xd1, 0x07, 0x7f, 0x13,
  0xf6, 0x1e, 0x03, 0x17, 0x13, 0xba, 0x7f, 0xff, 0x39, 0x18, 0x13, 0x23,
  0x13, 0x19, 0x15, 0x1b, 0xfe, 0xbb, 0xe4, 0x58, 0x3e, 0x53, 0x5c, 0xb0,
  0x81, 0xf5, 0x0f, 0x1b, 0xa7, 0xf1, 0x55, 0x27, 0xd0, 0xd1, 0xc8, 0xe7,
  0x46, 0xfe, 0xe9, 0x1a, 0xcf, 0x07, 0x22, 0xde, 0x31, 0x78, 0xa6, 0xf9,
  0xd4, 0x58, 0xf2, 0xb3, 0x95, 0x78, 0xe4, 0x45, 0xb5, 0xaa, 0x39, 0x0e,
  0xdc, 0xda, 0xf0, 0x81, 0x44, 0x06, 0x17, 0xd0, 0xe0, 0x0d, 0xf6, 0xac,
  0x42, 0x14, 0xdf, 0x7f, 0x3d, 0x97, 0x05, 0x95, 0xca, 0x24, 0xe8, 0xef,
  0xc4, 0x1f, 0x20, 0xd0, 0xd3, 0xa0, 0x39, 0x29, 0xc2, 0xc4, 0x3d, 0x5b,
  0x81, 0xe0, 0xfd, 0xfe, 0xf5, 0x49, 0x8a, 0xd6, 0x77, 0xf1, 0x7f, 0x02,
  0x1d, 0xe5, 0x2c, 0xc9, 0x02, 0x2b, 0x86, 0x9c, 0x55, 0x17, 0x26, 0xba,
  0x76, 0x61, 0xd3, 0xdc, 0xe5, 0xe2, 0xa9, 0xa2, 0x4e, 0x0a, 0x03, 0xcf,
  0x22, 0x0e, 0x17, 0xea, 0xec, 0x29, 0xb2, 0x0c, 0xb0, 0xdd, 0x7f, 0xf0,
  0xe5, 0x21, 0x2e, 0xf0, 0x7f, 0xf7, 0xb7, 0x8e, 0xce, 0xf1, 0x30, 0xe6,
  0xf8, 0x19, 0xe9, 0xf5, 0x38, 0x1d, 0xeb, 0xe0, 0xb5, 0x81, 0xd6, 0x39,
  0xd2, 0x0d, 0xf6, 0x25, 0x2b, 0x43, 0x5a, 0xef, 0x07, 0xc9, 0x62, 0x0b,
  0xf4, 0xad, 0x2c, 0x23, 0xf6, 0x51, 0x45, 0x7f, 0x94, 0x99, 0xfd, 0x0d,
  0xea, 0x52, 0x13, 0xb2, 0xb6, 0xdc, 0xae, 0xe5, 0x42, 0x55, 0x33, 0xac,
  0x1a, 0x19, 0x39, 0xc2, 0xd4, 0xe0, 0xad, 0x5a, 0xfb, 0x07, 0x81, 0x00,
  0x41, 0x06, 0x83, 0xef, 0xa2, 0xf2, 0xed, 0x0a, 0xc3, 0xa0, 0x4f, 0xde,
  0x14, 0x68, 0xed, 0x21, 0xe5, 0x4d, 0xf0, 0xad, 0x92, 0x1c, 0x7f, 0xc1,
  0x32, 0x1e, 0x00, 0xe3, 0x01, 0xbc, 0x3f, 0xdb, 0xb0, 0xa5, 0xe4, 0x22,
  0xc0, 0xb7, 0x52, 0x81, 0x55, 0x0d, 0x5a, 0x02, 0xb6, 0x0b, 0xc0, 0xa6,
  0x4c, 0x0e, 0xe5, 0x8e, 0xe6, 0x1f, 0x2f, 0x7f, 0x16, 0xf9, 0x42, 0x23,
  0x0d, 0x4b, 0xfc, 0xaf, 0xe1, 0x02, 0xe7, 0xd2, 0x23, 0xe8, 0xef, 0x7f,
  0x97, 0x23, 0x33, 0x05, 0x7f, 0x8c, 0xb6, 0x1c, 0xd0, 0xc5, 0x54, 0x09,
  0x5c, 0x1d, 0x16, 0xe3, 0x8a, 0xf1, 0xff, 0xff, 0x04, 0x00, 0x00, 0x00,
  0x3c, 0x00, 0x00, 0x00, 0x81, 0xef, 0x28, 0xf3, 0xdc, 0x64, 0xf2, 0x67,
  0xa9, 0xcb, 0x6e, 0xca, 0x8f, 0x2e, 0x09, 0x95, 0x56, 0xac, 0x50, 0x89,
  0x0a, 0xd7, 0x94, 0xd3, 0xab, 0xf5, 0x81, 0xa3, 0xda, 0xb4, 0xc8, 0x7a,
  0xb4, 0x3d, 0xe9, 0x0f, 0x5b, 0x3d, 0x2f, 0xed, 0x4d, 0x40, 0xeb, 0x41,
  0x7f, 0xd4, 0xb8, 0x34, 0xc9, 0xf6, 0xc5, 0xbf, 0xc9, 0xbb, 0xad, 0x1d,
  0xc0, 0xe5, 0x12, 0x0d, 0xd2, 0xf1, 0xff, 0xff, 0x04, 0x00, 0x00, 0x00,
  0x04, 0x00, 0x00, 0x00, 0x14, 0x00, 0x00, 0x00, 0xe2, 0xf1, 0xff, 0xff,
  0x04, 0x00, 0x00, 0x00, 0x08, 0x00, 0x00, 0x00, 0x00, 0x00, 0x00, 0x00,
  0x50, 0x00, 0x00, 0x00, 0xf6, 0xf1, 0xff, 0xff, 0x04, 0x00, 0x00, 0x00,
  0x08, 0x00, 0x00, 0x00, 0x00, 0x00, 0x00, 0x00, 0x3c, 0x00, 0x00, 0x00,
  0x0a, 0xf2, 0xff, 0xff, 0x04, 0x00, 0x00, 0x00, 0x08, 0x00, 0x00, 0x00,
  0x00, 0x00, 0x00, 0x00, 0x28, 0x00, 0x00, 0x00, 0x1e, 0xf2, 0xff, 0xff,
  0x04, 0x00, 0x00, 0x00, 0x08, 0x00, 0x00, 0x00, 0x01, 0x00, 0x00, 0x00,
  0x01, 0x00, 0x00, 0x00, 0x32, 0xf2, 0xff, 0xff, 0x04, 0x00, 0x00, 0x00,
  0x08, 0x00, 0x00, 0x00, 0x00, 0x00, 0x00, 0x00, 0x14, 0x00, 0x00, 0x00,
  0x46, 0xf2, 0xff, 0xff, 0x04, 0x00, 0x00, 0x00, 0x08, 0x00, 0x00, 0x00,
  0x00, 0x00, 0x00, 0x00, 0x00, 0x00, 0x00, 0x00, 0x5a, 0xf2, 0xff, 0xff,
  0x04, 0x00, 0x00, 0x00, 0x0c, 0x00, 0x00, 0x00, 0x01, 0x00, 0x00, 0x00,
  0x00, 0x00, 0x00, 0x00, 0x02, 0x00, 0x00, 0x00, 0x72, 0xf2, 0xff, 0xff,
  0x04, 0x00, 0x00, 0x00, 0x04, 0x00, 0x00, 0x00, 0x1e, 0x00, 0x00, 0x00,
  0x82, 0xf2, 0xff, 0xff, 0x04, 0x00, 0x00, 0x00, 0x0c, 0x00, 0x00, 0x00,
  0xff, 0xff, 0xff, 0xff, 0x0f, 0x00, 0x00, 0x00, 0x02, 0x00, 0x00, 0x00,
  0x9a, 0xf2, 0xff, 0xff, 0x04, 0x00, 0x00, 0x00, 0x0c, 0x00, 0x00, 0x00,
  0xff, 0xff, 0xff, 0xff, 0x1f, 0x00, 0x00, 0x00, 0x02, 0x00, 0x00, 0x00,
  0xb2, 0xf2, 0xff, 0xff, 0x04, 0x00, 0x00, 0x00, 0x04, 0x00, 0x00, 0x00,
  0xfd, 0xff, 0xff, 0xff, 0x00, 0xb2, 0xff, 0xff, 0xc6, 0xf2, 0xff, 0xff,
  0x04, 0x00, 0x00, 0x00, 0x04, 0x00, 0x00, 0x00, 0x28, 0x00, 0x00, 0x00,
  0xd6, 0xf2, 0xff, 0xff, 0x04, 0x00, 0x00, 0x00, 0x04, 0x00, 0x00, 0x00,
  0x01, 0x00, 0x00, 0x00, 0xe6, 0xf2, 0xff, 0xff, 0x04, 0x00, 0x00, 0x00,
  0x04, 0x00, 0x00, 0x00, 0x00, 0x00, 0x00, 0x00, 0x34, 0xb2, 0xff, 0xff,
  0x38, 0xb2, 0xff, 0xff, 0x3c, 0xb2, 0xff, 0xff, 0x0f, 0x00, 0x00, 0x00,
  0x4d, 0x4c, 0x49, 0x52, 0x20, 0x43, 0x6f, 0x6e, 0x76, 0x65, 0x72, 0x74,
  0x65, 0x64, 0x2e, 0x00, 0x01, 0x00, 0x00, 0x00, 0x14, 0x00, 0x00, 0x00,
  0x00, 0x00, 0x0e, 0x00, 0x18, 0x00, 0x14, 0x00, 0x10, 0x00, 0x0c, 0x00,
  0x08, 0x00, 0x04, 0x00, 0x0e, 0x00, 0x00, 0x00, 0x14, 0x00, 0x00, 0x00,
  0x1c, 0x00, 0x00, 0x00, 0x8c, 0x0d, 0x00, 0x00, 0x94, 0x0d, 0x00, 0x00,
  0x9c, 0x0d, 0x00, 0x00, 0x04, 0x00, 0x00, 0x00, 0x6d, 0x61, 0x69, 0x6e,
  0x00, 0x00, 0x00, 0x00, 0x40, 0x00, 0x00, 0x00, 0x3c, 0x0d, 0x00, 0x00,
  0xdc, 0x0c, 0x00, 0x00, 0x88, 0x0c, 0x00, 0x00, 0x60, 0x0c, 0x00, 0x00,
  0x20, 0x0c, 0x00, 0x00, 0xbc, 0x0b, 0x00, 0x00, 0x94, 0x0b, 0x00, 0x00,
  0x60, 0x0b, 0x00, 0x00, 0x0c, 0x0b, 0x00, 0x00, 0xe4, 0x0a, 0x00, 0x00,
  0xb4, 0x0a, 0x00, 0x00, 0x64, 0x0a, 0x00, 0x00, 0x2c, 0x0a, 0x00, 0x00,
  0x04, 0x0a, 0x00, 0x00, 0xcc, 0x09, 0x00, 0x00, 0x9c, 0x09, 0x00, 0x00,
  0x5c, 0x09, 0x00, 0x00, 0x20, 0x09, 0x00, 0x00, 0xf8, 0x08, 0x00, 0x00,
  0xd0, 0x08, 0x00, 0x00, 0x9c, 0x08, 0x00, 0x00, 0x64, 0x08, 0x00, 0x00,
  0x18, 0x08, 0x00, 0x00, 0xe0, 0x07, 0x00, 0x00, 0xac, 0x07, 0x00, 0x00,
  0x78, 0x07, 0x00, 0x00, 0x34, 0x07, 0x00, 0x00, 0x10, 0x07, 0x00, 0x00,
  0xec, 0x06, 0x00, 0x00, 0xc8, 0x06, 0x00, 0x00, 0xa4, 0x06, 0x00, 0x00,
  0x70, 0x06, 0x00, 0x00, 0x2c, 0x06, 0x00, 0x00, 0xf8, 0x05, 0x00, 0x00,
  0xc4, 0x05, 0x00, 0x00, 0xa0, 0x05, 0x00, 0x00, 0x6c, 0x05, 0x00, 0x00,
  0x38, 0x05, 0x00, 0x00, 0x04, 0x05, 0x00, 0x00, 0xcc, 0x04, 0x00, 0x00,
  0x88, 0x04, 0x00, 0x00, 0x50, 0x04, 0x00, 0x00, 0x1c, 0x04, 0x00, 0x00,
  0xe8, 0x03, 0x00, 0x00, 0xa4, 0x03, 0x00, 0x00, 0x80, 0x03, 0x00, 0x00,
  0x5c, 0x03, 0x00, 0x00, 0x38, 0x03, 0x00, 0x00, 0x14, 0x03, 0x00, 0x00,
  0xe0, 0x02, 0x00, 0x00, 0x9c, 0x02, 0x00, 0x00, 0x68, 0x02, 0x00, 0x00,
  0x34, 0x02, 0x00, 0x00, 0x10, 0x02, 0x00, 0x00, 0xdc, 0x01, 0x00, 0x00,
  0xa8, 0x01, 0x00, 0x00, 0x80, 0x01, 0x00, 0x00, 0x50, 0x01, 0x00, 0x00,
  0x10, 0x01, 0x00, 0x00, 0xd8, 0x00, 0x00, 0x00, 0xb0, 0x00, 0x00, 0x00,
  0x78, 0x00, 0x00, 0x00, 0x44, 0x00, 0x00, 0x00, 0x04, 0x00, 0x00, 0x00,
  0xde, 0xf4, 0xff, 0xff, 0x14, 0x00, 0x00, 0x00, 0x00, 0x00, 0x00, 0x0a,
  0x14, 0x00, 0x00, 0x00, 0x18, 0x00, 0x00, 0x00, 0x10, 0x00, 0x00, 0x00,
  0x6e, 0xf4, 0xff, 0xff, 0xff, 0xff, 0xff, 0xff, 0x01, 0x00, 0x00, 0x00,
  0x60, 0x00, 0x00, 0x00, 0x04, 0x00, 0x00, 0x00, 0x42, 0x00, 0x00, 0x00,
  0x40, 0x00, 0x00, 0x00, 0x57, 0x00, 0x00, 0x00, 0x55, 0x00, 0x00, 0x00,
  0x1a, 0xf5, 0xff, 0xff, 0x14, 0x00, 0x00, 0x00, 0x00, 0x00, 0x00, 0x09,
  0x14, 0x00, 0x00, 0x00, 0x18, 0x00, 0x00, 0x00, 0x0f, 0x00, 0x00, 0x00,
  0xaa, 0xf4, 0xff, 0xff, 0x00, 0x00, 0x80, 0x3f, 0x01, 0x00, 0x00, 0x00,
  0x5f, 0x00, 0x00, 0x00, 0x01, 0x00, 0x00, 0x00, 0x5e, 0x00, 0x00, 0x00,
  0x4a, 0xf5, 0xff, 0xff, 0x14, 0x00, 0x00, 0x00, 0x00, 0x00, 0x00, 0x08,
  0x10, 0x00, 0x00, 0x00, 0x14, 0x00, 0x00, 0x00, 0x07, 0x00, 0x00, 0x00,
  0x18, 0xb4, 0xff, 0xff, 0x01, 0x00, 0x00, 0x00, 0x5e, 0x00, 0x00, 0x00,
  0x03, 0x00, 0x00, 0x00, 0x5d, 0x00, 0x00, 0x00, 0x12, 0x00, 0x00, 0x00,
  0xff, 0xff, 0xff, 0xff, 0x3e, 0xf5, 0xff, 0xff, 0x0c, 0x00, 0x00, 0x00,
  0x10, 0x00, 0x00, 0x00, 0x03, 0x00, 0x00, 0x00, 0x01, 0x00, 0x00, 0x00,
  0x5d, 0x00, 0x00, 0x00, 0x02, 0x00, 0x00, 0x00, 0x59, 0x00, 0x00, 0x00,
  0x5c, 0x00, 0x00, 0x00, 0xa2, 0xf5, 0xff, 0xff, 0x14, 0x00, 0x00, 0x00,
  0x00, 0x00, 0x00, 0x3b, 0x14, 0x00, 0x00, 0x00, 0x18, 0x00, 0x00, 0x00,
  0x02, 0x00, 0x00, 0x00, 0x32, 0xf5, 0xff, 0xff, 0x02, 0x00, 0x00, 0x00,
  0x01, 0x00, 0x00, 0x00, 0x5c, 0x00, 0x00, 0x00, 0x02, 0x00, 0x00, 0x00,
  0x5b, 0x00, 0x00, 0x00, 0x11, 0x00, 0x00, 0x00, 0xd6, 0xf5, 0xff, 0xff,
  0x14, 0x00, 0x00, 0x00, 0x00, 0x00, 0x00, 0x20, 0x14, 0x00, 0x00, 0x00,
  0x18, 0x00, 0x00, 0x00, 0x01, 0x00, 0x00, 0x00, 0x16, 0xf5, 0xff, 0xff,
  0x01, 0x00, 0x00, 0x00, 0x01, 0x00, 0x00, 0x00, 0x5b, 0x00, 0x00, 0x00,
  0x04, 0x00, 0x00, 0x00, 0x5a, 0x00, 0x00, 0x00, 0x02, 0x00, 0x00, 0x00,
  0x03, 0x00, 0x00, 0x00, 0x03, 0x00, 0x00, 0x00, 0x66, 0xf7, 0xff, 0xff,
  0x10, 0x00, 0x00, 0x00, 0x00, 0x00, 0x00, 0x37, 0x10, 0x00, 0x00, 0x00,
  0x14, 0x00, 0x00, 0x00, 0xf6, 0xf4, 0xff, 0xff, 0x00, 0x00, 0x00, 0x02,
  0x01, 0x00, 0x00, 0x00, 0x5a, 0x00, 0x00, 0x00, 0x01, 0x00, 0x00, 0x00,
  0x59, 0x00, 0x00, 0x00, 0xfe, 0xf5, 0xff, 0xff, 0x0c, 0x00, 0x00, 0x00,
  0x10, 0x00, 0x00, 0x00, 0x08, 0x00, 0x00, 0x00, 0x01, 0x00, 0x00, 0x00,
  0x59, 0x00, 0x00, 0x00, 0x02, 0x00, 0x00, 0x00, 0x58, 0x00, 0x00, 0x00,
  0x0a, 0x00, 0x00, 0x00, 0x62, 0xf6, 0xff, 0xff, 0x14, 0x00, 0x00, 0x00,
  0x00, 0x00, 0x00, 0x3b, 0x14, 0x00, 0x00, 0x00, 0x18, 0x00, 0x00, 0x00,
  0x02, 0x00, 0x00, 0x00, 0xf2, 0xf5, 0xff, 0xff, 0x01, 0x00, 0x00, 0x00,
  0x01, 0x00, 0x00, 0x00, 0x58, 0x00, 0x00, 0x00, 0x01, 0x00, 0x00, 0x00,
  0x57, 0x00, 0x00, 0x00, 0x92, 0xf6, 0xff, 0xff, 0x14, 0x00, 0x00, 0x00,
  0x00, 0x00, 0x00, 0x15, 0x10, 0x00, 0x00, 0x00, 0x14, 0x00, 0x00, 0x00,
  0x0e, 0x00, 0x00, 0x00, 0x60, 0xb5, 0xff, 0xff, 0x01, 0x00, 0x00, 0x00,
  0x57, 0x00, 0x00, 0x00, 0x02, 0x00, 0x00, 0x00, 0x50, 0x00, 0x00, 0x00,
  0x56, 0x00, 0x00, 0x00, 0x82, 0xf6, 0xff, 0xff, 0x0c, 0x00, 0x00, 0x00,
  0x10, 0x00, 0x00, 0x00, 0x0d, 0x00, 0x00, 0x00, 0x01, 0x00, 0x00, 0x00,
  0x56, 0x00, 0x00, 0x00, 0x01, 0x00, 0x00, 0x00, 0x55, 0x00, 0x00, 0x00,
  0xe2, 0xf6, 0xff, 0xff, 0x14, 0x00, 0x00, 0x00, 0x00, 0x00, 0x00, 0x0b,
  0x10, 0x00, 0x00, 0x00, 0x14, 0x00, 0x00, 0x00, 0x0a, 0x00, 0x00, 0x00,
  0xb0, 0xb5, 0xff, 0xff, 0x01, 0x00, 0x00, 0x00, 0x55, 0x00, 0x00, 0x00,
  0x02, 0x00, 0x00, 0x00, 0x54, 0x00, 0x00, 0x00, 0x52, 0x00, 0x00, 0x00,
  0x12, 0xf7, 0xff, 0xff, 0x14, 0x00, 0x00, 0x00, 0x00, 0x00, 0x00, 0x15,
  0x10, 0x00, 0x00, 0x00, 0x14, 0x00, 0x00, 0x00, 0x0e, 0x00, 0x00, 0x00,
  0xe0, 0xb5, 0xff, 0xff, 0x01, 0x00, 0x00, 0x00, 0x54, 0x00, 0x00, 0x00,
  0x02, 0x00, 0x00, 0x00, 0x4f, 0x00, 0x00, 0x00, 0x53, 0x00, 0x00, 0x00,
  0x42, 0xf7, 0xff, 0xff, 0x14, 0x00, 0x00, 0x00, 0x00, 0x00, 0x00, 0x20,
  0x18, 0x00, 0x00, 0x00, 0x1c, 0x00, 0x00, 0x00, 0x01, 0x00, 0x00, 0x00,
  0xf4, 0xfa, 0xff, 0xff, 0x01, 0x00, 0x00, 0x00, 0x01, 0x00, 0x00, 0x00,
  0x01, 0x00, 0x00, 0x00, 0x53, 0x00, 0x00, 0x00, 0x04, 0x00, 0x00, 0x00,
  0x01, 0x00, 0x00, 0x00, 0x0f, 0x00, 0x00, 0x00, 0x10, 0x00, 0x00, 0x00,
  0x0d, 0x00, 0x00, 0x00, 0x82, 0xf7, 0xff, 0xff, 0x14, 0x00, 0x00, 0x00,
  0x00, 0x00, 0x00, 0x15, 0x10, 0x00, 0x00, 0x00, 0x14, 0x00, 0x00, 0x00,
  0x0e, 0x00, 0x00, 0x00, 0x50, 0xb6, 0xff, 0xff, 0x01, 0x00, 0x00, 0x00,
  0x52, 0x00, 0x00, 0x00, 0x02, 0x00, 0x00, 0x00, 0x4e, 0x00, 0x00, 0x00,
  0x51, 0x00, 0x00, 0x00, 0x72, 0xf7, 0xff, 0xff, 0x0c, 0x00, 0x00, 0x00,
  0x10, 0x00, 0x00, 0x00, 0x0d, 0x00, 0x00, 0x00, 0x01, 0x00, 0x00, 0x00,
  0x51, 0x00, 0x00, 0x00, 0x01, 0x00, 0x00, 0x00, 0x4c, 0x00, 0x00, 0x00,
  0x92, 0xf7, 0xff, 0xff, 0x0c, 0x00, 0x00, 0x00, 0x10, 0x00, 0x00, 0x00,
  0x0c, 0x00, 0x00, 0x00, 0x01, 0x00, 0x00, 0x00, 0x50, 0x00, 0x00, 0x00,
  0x01, 0x00, 0x00, 0x00, 0x4d, 0x00, 0x00, 0x00, 0xb2, 0xf7, 0xff, 0xff,
  0x0c, 0x00, 0x00, 0x00, 0x10, 0x00, 0x00, 0x00, 0x0c, 0x00, 0x00, 0x00,
  0x01, 0x00, 0x00, 0x00, 0x4f, 0x00, 0x00, 0x00, 0x01, 0x00, 0x00, 0x00,
  0x4b, 0x00, 0x00, 0x00, 0xd2, 0xf7, 0xff, 0xff, 0x0c, 0x00, 0x00, 0x00,
  0x10, 0x00, 0x00, 0x00, 0x0c, 0x00, 0x00, 0x00, 0x01, 0x00, 0x00, 0x00,
  0x4e, 0x00, 0x00, 0x00, 0x01, 0x00, 0x00, 0x00, 0x4a, 0x00, 0x00, 0x00,
  0x32, 0xf8, 0xff, 0xff, 0x14, 0x00, 0x00, 0x00, 0x00, 0x00, 0x00, 0x23,
  0x14, 0x00, 0x00, 0x00, 0x24, 0x00, 0x00, 0x00, 0x0b, 0x00, 0x00, 0x00,
  0xc2, 0xf7, 0xff, 0xff, 0x04, 0x00, 0x00, 0x00, 0x04, 0x00, 0x00, 0x00,
  0x4a, 0x00, 0x00, 0x00, 0x4b, 0x00, 0x00, 0x00, 0x4c, 0x00, 0x00, 0x00,
  0x4d, 0x00, 0x00, 0x00, 0x02, 0x00, 0x00, 0x00, 0x05, 0x00, 0x00, 0x00,
  0x49, 0x00, 0x00, 0x00, 0x72, 0xf8, 0xff, 0xff, 0x14, 0x00, 0x00, 0x00,
  0x00, 0x00, 0x00, 0x0b, 0x10, 0x00, 0x00, 0x00, 0x14, 0x00, 0x00, 0x00,
  0x0a, 0x00, 0x00, 0x00, 0x40, 0xb7, 0xff, 0xff, 0x01, 0x00, 0x00, 0x00,
  0x49, 0x00, 0x00, 0x00, 0x02, 0x00, 0x00, 0x00, 0x48, 0x00, 0x00, 0x00,
  0x15, 0x00, 0x00, 0x00, 0xa2, 0xf8, 0xff, 0xff, 0x14, 0x00, 0x00, 0x00,
  0x00, 0x00, 0x00, 0x0b, 0x10, 0x00, 0x00, 0x00, 0x14, 0x00, 0x00, 0x00,
  0x0a, 0x00, 0x00, 0x00, 0x70, 0xb7, 0xff, 0xff, 0x01, 0x00, 0x00, 0x00,
  0x48, 0x00, 0x00, 0x00, 0x02, 0x00, 0x00, 0x00, 0x45, 0x00, 0x00, 0x00,
  0x47, 0x00, 0x00, 0x00, 0xd2, 0xf8, 0xff, 0xff, 0x14, 0x00, 0x00, 0x00,
  0x00, 0x00, 0x00, 0x08, 0x10, 0x00, 0x00, 0x00, 0x14, 0x00, 0x00, 0x00,
  0x07, 0x00, 0x00, 0x00, 0xa0, 0xb7, 0xff, 0xff, 0x01, 0x00, 0x00, 0x00,
  0x47, 0x00, 0x00, 0x00, 0x03, 0x00, 0x00, 0x00, 0x46, 0x00, 0x00, 0x00,
  0x13, 0x00, 0x00, 0x00, 0xff, 0xff, 0xff, 0xff, 0x06, 0xf9, 0xff, 0xff,
  0x14, 0x00, 0x00, 0x00, 0x00, 0x00, 0x00, 0x20, 0x18, 0x00, 0x00, 0x00,
  0x1c, 0x00, 0x00, 0x00, 0x01, 0x00, 0x00, 0x00, 0xb8, 0xfc, 0xff, 0xff,
  0x01, 0x00, 0x00, 0x00, 0x01, 0x00, 0x00, 0x00, 0x01, 0x00, 0x00, 0x00,
  0x46, 0x00, 0x00, 0x00, 0x04, 0x00, 0x00, 0x00, 0x01, 0x00, 0x00, 0x00,
  0x0e, 0x00, 0x00, 0x00, 0x0f, 0x00, 0x00, 0x00, 0x0d, 0x00, 0x00, 0x00,
  0x46, 0xf9, 0xff, 0xff, 0x14, 0x00, 0x00, 0x00, 0x00, 0x00, 0x00, 0x08,
  0x10, 0x00, 0x00, 0x00, 0x14, 0x00, 0x00, 0x00, 0x07, 0x00, 0x00, 0x00,
  0x14, 0xb8, 0xff, 0xff, 0x01, 0x00, 0x00, 0x00, 0x45, 0x00, 0x00, 0x00,
  0x03, 0x00, 0x00, 0x00, 0x44, 0x00, 0x00, 0x00, 0x14, 0x00, 0x00, 0x00,
  0xff, 0xff, 0xff, 0xff, 0x7a, 0xf9, 0xff, 0xff, 0x14, 0x00, 0x00, 0x00,
  0x00, 0x00, 0x00, 0x40, 0x14, 0x00, 0x00, 0x00, 0x18, 0x00, 0x00, 0x00,
  0x09, 0x00, 0x00, 0x00, 0x0a, 0xf9, 0xff, 0xff, 0x01, 0x00, 0x00, 0x00,
  0x01, 0x00, 0x00, 0x00, 0x44, 0x00, 0x00, 0x00, 0x01, 0x00, 0x00, 0x00,
  0x43, 0x00, 0x00, 0x00, 0xaa, 0xf9, 0xff, 0xff, 0x14, 0x00, 0x00, 0x00,
  0x00, 0x00, 0x00, 0x3b, 0x14, 0x00, 0x00, 0x00, 0x18, 0x00, 0x00, 0x00,
  0x02, 0x00, 0x00, 0x00, 0x3a, 0xf9, 0xff, 0xff, 0x01, 0x00, 0x00, 0x00,
  0x01, 0x00, 0x00, 0x00, 0x43, 0x00, 0x00, 0x00, 0x01, 0x00, 0x00, 0x00,
  0x42, 0x00, 0x00, 0x00, 0xda, 0xf9, 0xff, 0xff, 0x14, 0x00, 0x00, 0x00,
  0x00, 0x00, 0x00, 0x15, 0x10, 0x00, 0x00, 0x00, 0x14, 0x00, 0x00, 0x00,
  0x0e, 0x00, 0x00, 0x00, 0xa8, 0xb8, 0xff, 0xff, 0x01, 0x00, 0x00, 0x00,
  0x42, 0x00, 0x00, 0x00, 0x02, 0x00, 0x00, 0x00, 0x3b, 0x00, 0x00, 0x00,
  0x41, 0x00, 0x00, 0x00, 0xca, 0xf9, 0xff, 0xff, 0x0c, 0x00, 0x00, 0x00,
  0x10, 0x00, 0x00, 0x00, 0x0d, 0x00, 0x00, 0x00, 0x01, 0x00, 0x00, 0x00,
  0x41, 0x00, 0x00, 0x00, 0x01, 0x00, 0x00, 0x00, 0x40, 0x00, 0x00, 0x00,
  0x2a, 0xfa, 0xff, 0xff, 0x14, 0x00, 0x00, 0x00, 0x00, 0x00, 0x00, 0x0b,
  0x10, 0x00, 0x00, 0x00, 0x14, 0x00, 0x00, 0x00, 0x0a, 0x00, 0x00, 0x00,
  0xf8, 0xb8, 0xff, 0xff, 0x01, 0x00, 0x00, 0x00, 0x40, 0x00, 0x00, 0x00,
  0x02, 0x00, 0x00, 0x00, 0x3f, 0x00, 0x00, 0x00, 0x3d, 0x00, 0x00, 0x00,
  0x5a, 0xfa, 0xff, 0xff, 0x14, 0x00, 0x00, 0x00, 0x00, 0x00, 0x00, 0x15,
  0x10, 0x00, 0x00, 0x00, 0x14, 0x00, 0x00, 0x00, 0x0e, 0x00, 0x00, 0x00,
  0x28, 0xb9, 0xff, 0xff, 0x01, 0x00, 0x00, 0x00, 0x3f, 0x00, 0x00, 0x00,
  0x02, 0x00, 0x00, 0x00, 0x3a, 0x00, 0x00, 0x00, 0x3e, 0x00, 0x00, 0x00,
  0x8a, 0xfa, 0xff, 0xff, 0x14, 0x00, 0x00, 0x00, 0x00, 0x00, 0x00, 0x20,
  0x18, 0x00, 0x00, 0x00, 0x1c, 0x00, 0x00, 0x00, 0x01, 0x00, 0x00, 0x00,
  0x3c, 0xfe, 0xff, 0xff, 0x01, 0x00, 0x00, 0x00, 0x01, 0x00, 0x00, 0x00,
  0x01, 0x00, 0x00, 0x00, 0x3e, 0x00, 0x00, 0x00, 0x04, 0x00, 0x00, 0x00,
  0x01, 0x00, 0x00, 0x00, 0x0c, 0x00, 0x00, 0x00, 0x0e, 0x00, 0x00, 0x00,
  0x0d, 0x00, 0x00, 0x00, 0xca, 0xfa, 0xff, 0xff, 0x14, 0x00, 0x00, 0x00,
  0x00, 0x00, 0x00, 0x15, 0x10, 0x00, 0x00, 0x00, 0x14, 0x00, 0x00, 0x00,
  0x0e, 0x00, 0x00, 0x00, 0x98, 0xb9, 0xff, 0xff, 0x01, 0x00, 0x00, 0x00,
  0x3d, 0x00, 0x00, 0x00, 0x02, 0x00, 0x00, 0x00, 0x39, 0x00, 0x00, 0x00,
  0x3c, 0x00, 0x00, 0x00, 0xba, 0xfa, 0xff, 0xff, 0x0c, 0x00, 0x00, 0x00,
  0x10, 0x00, 0x00, 0x00, 0x0d, 0x00, 0x00, 0x00, 0x01, 0x00, 0x00, 0x00,
  0x3c, 0x00, 0x00, 0x00, 0x01, 0x00, 0x00, 0x00, 0x37, 0x00, 0x00, 0x00,
  0xda, 0xfa, 0xff, 0xff, 0x0c, 0x00, 0x00, 0x00, 0x10, 0x00, 0x00, 0x00,
  0x0c, 0x00, 0x00, 0x00, 0x01, 0x00, 0x00, 0x00, 0x3b, 0x00, 0x00, 0x00,
  0x01, 0x00, 0x00, 0x00, 0x38, 0x00, 0x00, 0x00, 0xfa, 0xfa, 0xff, 0xff,
  0x0c, 0x00, 0x00, 0x00, 0x10, 0x00, 0x00, 0x00, 0x0c, 0x00, 0x00, 0x00,
  0x01, 0x00, 0x00, 0x00, 0x3a, 0x00, 0x00, 0x00, 0x01, 0x00, 0x00, 0x00,
  0x36, 0x00, 0x00, 0x00, 0x1a, 0xfb, 0xff, 0xff, 0x0c, 0x00, 0x00, 0x00,
  0x10, 0x00, 0x00, 0x00, 0x0c, 0x00, 0x00, 0x00, 0x01, 0x00, 0x00, 0x00,
  0x39, 0x00, 0x00, 0x00, 0x01, 0x00, 0x00, 0x00, 0x35, 0x00, 0x00, 0x00,
  0x7a, 0xfb, 0xff, 0xff, 0x14, 0x00, 0x00, 0x00, 0x00, 0x00, 0x00, 0x23,
  0x14, 0x00, 0x00, 0x00, 0x24, 0x00, 0x00, 0x00, 0x0b, 0x00, 0x00, 0x00,
  0x0a, 0xfb, 0xff, 0xff, 0x04, 0x00, 0x00, 0x00, 0x04, 0x00, 0x00, 0x00,
  0x35, 0x00, 0x00, 0x00, 0x36, 0x00, 0x00, 0x00, 0x37, 0x00, 0x00, 0x00,
  0x38, 0x00, 0x00, 0x00, 0x02, 0x00, 0x00, 0x00, 0x05, 0x00, 0x00, 0x00,
  0x34, 0x00, 0x00, 0x00, 0xba, 0xfb, 0xff, 0xff, 0x14, 0x00, 0x00, 0x00,
  0x00, 0x00, 0x00, 0x0b, 0x10, 0x00, 0x00, 0x00, 0x14, 0x00, 0x00, 0x00,
  0x0a, 0x00, 0x00, 0x00, 0x88, 0xba, 0xff, 0xff, 0x01, 0x00, 0x00, 0x00,
  0x34, 0x00, 0x00, 0x00, 0x02, 0x00, 0x00, 0x00, 0x33, 0x00, 0x00, 0x00,
  0x15, 0x00, 0x00, 0x00, 0xea, 0xfb, 0xff, 0xff, 0x14, 0x00, 0x00, 0x00,
  0x00, 0x00, 0x00, 0x0b, 0x10, 0x00, 0x00, 0x00, 0x14, 0x00, 0x00, 0x00,
  0x0a, 0x00, 0x00, 0x00, 0xb8, 0xba, 0xff, 0xff, 0x01, 0x00, 0x00, 0x00,
  0x33, 0x00, 0x00, 0x00, 0x02, 0x00, 0x00, 0x00, 0x30, 0x00, 0x00, 0x00,
  0x32, 0x00, 0x00, 0x00, 0x1a, 0xfc, 0xff, 0xff, 0x14, 0x00, 0x00, 0x00,
  0x00, 0x00, 0x00, 0x08, 0x10, 0x00, 0x00, 0x00, 0x14, 0x00, 0x00, 0x00,
  0x07, 0x00, 0x00, 0x00, 0xe8, 0xba, 0xff, 0xff, 0x01, 0x00, 0x00, 0x00,
  0x32, 0x00, 0x00, 0x00, 0x03, 0x00, 0x00, 0x00, 0x31, 0x00, 0x00, 0x00,
  0x16, 0x00, 0x00, 0x00, 0xff, 0xff, 0xff, 0xff, 0x4e, 0xfc, 0xff, 0xff,
  0x1c, 0x00, 0x00, 0x00, 0x00, 0x00, 0x00, 0x20, 0x20, 0x00, 0x00, 0x00,
  0x24, 0x00, 0x00, 0x00, 0x01, 0x00, 0x00, 0x00, 0x08, 0x00, 0x0c, 0x00,
  0x08, 0x00, 0x04, 0x00, 0x08, 0x00, 0x00, 0x00, 0x01, 0x00, 0x00, 0x00,
  0x01, 0x00, 0x00, 0x00, 0x01, 0x00, 0x00, 0x00, 0x31, 0x00, 0x00, 0x00,
  0x04, 0x00, 0x00, 0x00, 0x01, 0x00, 0x00, 0x00, 0x0b, 0x00, 0x00, 0x00,
  0x0c, 0x00, 0x00, 0x00, 0x0d, 0x00, 0x00, 0x00, 0x96, 0xfc, 0xff, 0xff,
  0x14, 0x00, 0x00, 0x00, 0x00, 0x00, 0x00, 0x08, 0x10, 0x00, 0x00, 0x00,
  0x14, 0x00, 0x00, 0x00, 0x07, 0x00, 0x00, 0x00, 0x64, 0xbb, 0xff, 0xff,
  0x01, 0x00, 0x00, 0x00, 0x30, 0x00, 0x00, 0x00, 0x03, 0x00, 0x00, 0x00,
  0x2f, 0x00, 0x00, 0x00, 0x17, 0x00, 0x00, 0x00, 0xff, 0xff, 0xff, 0xff,
  0xca, 0xfc, 0xff, 0xff, 0x14, 0x00, 0x00, 0x00, 0x00, 0x00, 0x00, 0x40,
  0x14, 0x00, 0x00, 0x00, 0x18, 0x00, 0x00, 0x00, 0x09, 0x00, 0x00, 0x00,
  0x5a, 0xfc, 0xff, 0xff, 0x01, 0x00, 0x00, 0x00, 0x01, 0x00, 0x00, 0x00,
  0x2f, 0x00, 0x00, 0x00, 0x01, 0x00, 0x00, 0x00, 0x2e, 0x00, 0x00, 0x00,
  0xba, 0xfc, 0xff, 0xff, 0x0c, 0x00, 0x00, 0x00, 0x10, 0x00, 0x00, 0x00,
  0x08, 0x00, 0x00, 0x00, 0x01, 0x00, 0x00, 0x00, 0x2e, 0x00, 0x00, 0x00,
  0x02, 0x00, 0x00, 0x00, 0x2d, 0x00, 0x00, 0x00, 0x0a, 0x00, 0x00, 0x00,
  0xde, 0xfc, 0xff, 0xff, 0x0c, 0x00, 0x00, 0x00, 0x10, 0x00, 0x00, 0x00,
  0x03, 0x00, 0x00, 0x00, 0x01, 0x00, 0x00, 0x00, 0x2d, 0x00, 0x00, 0x00,
  0x02, 0x00, 0x00, 0x00, 0x29, 0x00, 0x00, 0x00, 0x2c, 0x00, 0x00, 0x00,
  0x42, 0xfd, 0xff, 0xff, 0x14, 0x00, 0x00, 0x00, 0x00, 0x00, 0x00, 0x3b,
  0x14, 0x00, 0x00, 0x00, 0x18, 0x00, 0x00, 0x00, 0x02, 0x00, 0x00, 0x00,
  0xd2, 0xfc, 0xff, 0xff, 0x03, 0x00, 0x00, 0x00, 0x01, 0x00, 0x00, 0x00,
  0x2c, 0x00, 0x00, 0x00, 0x03, 0x00, 0x00, 0x00, 0x2b, 0x00, 0x00, 0x00,
  0x05, 0x00, 0x00, 0x00, 0x04, 0x00, 0x00, 0x00, 0x7a, 0xfd, 0xff, 0xff,
  0x14, 0x00, 0x00, 0x00, 0x00, 0x00, 0x00, 0x20, 0x14, 0x00, 0x00, 0x00,
  0x18, 0x00, 0x00, 0x00, 0x01, 0x00, 0x00, 0x00, 0xba, 0xfc, 0xff, 0xff,
  0x01, 0x00, 0x00, 0x00, 0x01, 0x00, 0x00, 0x00, 0x2b, 0x00, 0x00, 0x00,
  0x04, 0x00, 0x00, 0x00, 0x2a, 0x00, 0x00, 0x00, 0x02, 0x00, 0x00, 0x00,
  0x03, 0x00, 0x00, 0x00, 0x03, 0x00, 0x00, 0x00, 0x0a, 0xff, 0xff, 0xff,
  0x10, 0x00, 0x00, 0x00, 0x00, 0x00, 0x00, 0x37, 0x10, 0x00, 0x00, 0x00,
  0x14, 0x00, 0x00, 0x00, 0x9a, 0xfc, 0xff, 0xff, 0x00, 0x00, 0x00, 0x02,
  0x01, 0x00, 0x00, 0x00, 0x2a, 0x00, 0x00, 0x00, 0x01, 0x00, 0x00, 0x00,
  0x29, 0x00, 0x00, 0x00, 0xe2, 0xfd, 0xff, 0xff, 0x14, 0x00, 0x00, 0x00,
  0x00, 0x00, 0x00, 0x08, 0x10, 0x00, 0x00, 0x00, 0x14, 0x00, 0x00, 0x00,
  0x07, 0x00, 0x00, 0x00, 0xb0, 0xbc, 0xff, 0xff, 0x01, 0x00, 0x00, 0x00,
  0x29, 0x00, 0x00, 0x00, 0x03, 0x00, 0x00, 0x00, 0x28, 0x00, 0x00, 0x00,
  0x18, 0x00, 0x00, 0x00, 0xff, 0xff, 0xff, 0xff, 0xd6, 0xfd, 0xff, 0xff,
  0x0c, 0x00, 0x00, 0x00, 0x10, 0x00, 0x00, 0x00, 0x03, 0x00, 0x00, 0x00,
  0x01, 0x00, 0x00, 0x00, 0x28, 0x00, 0x00, 0x00, 0x02, 0x00, 0x00, 0x00,
  0x23, 0x00, 0x00, 0x00, 0x27, 0x00, 0x00, 0x00, 0x3a, 0xfe, 0xff, 0xff,
  0x14, 0x00, 0x00, 0x00, 0x00, 0x00, 0x00, 0x3b, 0x14, 0x00, 0x00, 0x00,
  0x18, 0x00, 0x00, 0x00, 0x02, 0x00, 0x00, 0x00, 0xca, 0xfd, 0xff, 0xff,
  0x02, 0x00, 0x00, 0x00, 0x01, 0x00, 0x00, 0x00, 0x27, 0x00, 0x00, 0x00,
  0x02, 0x00, 0x00, 0x00, 0x26, 0x00, 0x00, 0x00, 0x09, 0x00, 0x00, 0x00,
  0x6e, 0xfe, 0xff, 0xff, 0x14, 0x00, 0x00, 0x00, 0x00, 0x00, 0x00, 0x20,
  0x14, 0x00, 0x00, 0x00, 0x18, 0x00, 0x00, 0x00, 0x01, 0x00, 0x00, 0x00,
  0xae, 0xfd, 0xff, 0xff, 0x01, 0x00, 0x00, 0x00, 0x01, 0x00, 0x00, 0x00,
  0x26, 0x00, 0x00, 0x00, 0x04, 0x00, 0x00, 0x00, 0x25, 0x00, 0x00, 0x00,
  0x02, 0x00, 0x00, 0x00, 0x03, 0x00, 0x00, 0x00, 0x03, 0x00, 0x00, 0x00,
  0x00, 0x00, 0x0e, 0x00, 0x14, 0x00, 0x00, 0x00, 0x10, 0x00, 0x0c, 0x00,
  0x0b, 0x00, 0x04, 0x00, 0x0e, 0x00, 0x00, 0x00, 0x10, 0x00, 0x00, 0x00,
  0x00, 0x00, 0x00, 0x37, 0x10, 0x00, 0x00, 0x00, 0x14, 0x00, 0x00, 0x00,
  0x9e, 0xfd, 0xff, 0xff, 0x00, 0x00, 0x00, 0x02, 0x01, 0x00, 0x00, 0x00,
  0x25, 0x00, 0x00, 0x00, 0x01, 0x00, 0x00, 0x00, 0x24, 0x00, 0x00, 0x00,
  0xa6, 0xfe, 0xff, 0xff, 0x0c, 0x00, 0x00, 0x00, 0x10, 0x00, 0x00, 0x00,
  0x03, 0x00, 0x00, 0x00, 0x01, 0x00, 0x00, 0x00, 0x24, 0x00, 0x00, 0x00,
  0x02, 0x00, 0x00, 0x00, 0x23, 0x00, 0x00, 0x00, 0x08, 0x00, 0x00, 0x00,
  0x5a, 0xfe, 0xff, 0xff, 0x24, 0x00, 0x00, 0x00, 0x00, 0x00, 0x00, 0x05,
  0x34, 0x00, 0x00, 0x00, 0x38, 0x00, 0x00, 0x00, 0x06, 0x00, 0x00, 0x00,
  0x00, 0x00, 0x0e, 0x00, 0x18, 0x00, 0x17, 0x00, 0x10, 0x00, 0x0c, 0x00,
  0x08, 0x00, 0x04, 0x00, 0x0e, 0x00, 0x00, 0x00, 0x01, 0x00, 0x00, 0x00,
  0x02, 0x00, 0x00, 0x00, 0x01, 0x00, 0x00, 0x00, 0x02, 0x00, 0x00, 0x00,
  0x00, 0x00, 0x00, 0x01, 0x01, 0x00, 0x00, 0x00, 0x23, 0x00, 0x00, 0x00,
  0x01, 0x00, 0x00, 0x00, 0x22, 0x00, 0x00, 0x00, 0x5a, 0xff, 0xff, 0xff,
  0x14, 0x00, 0x00, 0x00, 0x00, 0x00, 0x00, 0x34, 0x10, 0x00, 0x00, 0x00,
  0x14, 0x00, 0x00, 0x00, 0x04, 0x00, 0x00, 0x00, 0x28, 0xbe, 0xff, 0xff,
  0x01, 0x00, 0x00, 0x00, 0x22, 0x00, 0x00, 0x00, 0x02, 0x00, 0x00, 0x00,
  0x21, 0x00, 0x00, 0x00, 0x05, 0x00, 0x00, 0x00, 0x4a, 0xff, 0xff, 0xff,
  0x0c, 0x00, 0x00, 0x00, 0x10, 0x00, 0x00, 0x00, 0x03, 0x00, 0x00, 0x00,
  0x01, 0x00, 0x00, 0x00, 0x21, 0x00, 0x00, 0x00, 0x02, 0x00, 0x00, 0x00,
  0x20, 0x00, 0x00, 0x00, 0x07, 0x00, 0x00, 0x00, 0xae, 0xff, 0xff, 0xff,
  0x20, 0x00, 0x00, 0x00, 0x00, 0x00, 0x00, 0x01, 0x2c, 0x00, 0x00, 0x00,
  0x30, 0x00, 0x00, 0x00, 0x05, 0x00, 0x00, 0x00, 0x0c, 0x00, 0x14, 0x00,
  0x13, 0x00, 0x0c, 0x00, 0x08, 0x00, 0x07, 0x00, 0x0c, 0x00, 0x00, 0x00,
  0x00, 0x00, 0x00, 0x01, 0x01, 0x00, 0x00, 0x00, 0x01, 0x00, 0x00, 0x00,
  0x00, 0x00, 0x00, 0x01, 0x01, 0x00, 0x00, 0x00, 0x20, 0x00, 0x00, 0x00,
  0x03, 0x00, 0x00, 0x00, 0x1f, 0x00, 0x00, 0x00, 0x1a, 0x00, 0x00, 0x00,
  0x19, 0x00, 0x00, 0x00, 0x00, 0x00, 0x0e, 0x00, 0x18, 0x00, 0x14, 0x00,
  0x10, 0x00, 0x0c, 0x00, 0x0b, 0x00, 0x04, 0x00, 0x0e, 0x00, 0x00, 0x00,
  0x14, 0x00, 0x00, 0x00, 0x00, 0x00, 0x00, 0x34, 0x10, 0x00, 0x00, 0x00,
  0x14, 0x00, 0x00, 0x00, 0x04, 0x00, 0x00, 0x00, 0xdc, 0xbe, 0xff, 0xff,
  0x01, 0x00, 0x00, 0x00, 0x1f, 0x00, 0x00, 0x00, 0x02, 0x00, 0x00, 0x00,
  0x1e, 0x00, 0x00, 0x00, 0x06, 0x00, 0x00, 0x00, 0x00, 0x00, 0x0a, 0x00,
  0x10, 0x00, 0x0c, 0x00, 0x08, 0x00, 0x04, 0x00, 0x0a, 0x00, 0x00, 0x00,
  0x0c, 0x00, 0x00, 0x00, 0x10, 0x00, 0x00, 0x00, 0x03, 0x00, 0x00, 0x00,
  0x01, 0x00, 0x00, 0x00, 0x1e, 0x00, 0x00, 0x00, 0x02, 0x00, 0x00, 0x00,
  0x00, 0x00, 0x00, 0x00, 0x1d, 0x00, 0x00, 0x00, 0xbe, 0xff, 0xff, 0xff,
  0x1c, 0x00, 0x00, 0x00, 0x00, 0x00, 0x00, 0x3b, 0x1c, 0x00, 0x00, 0x00,
  0x20, 0x00, 0x00, 0x00, 0x02, 0x00, 0x00, 0x00, 0x00, 0x00, 0x06, 0x00,
  0x08, 0x00, 0x04, 0x00, 0x06, 0x00, 0x00, 0x00, 0x03, 0x00, 0x00, 0x00,
  0x01, 0x00, 0x00, 0x00, 0x1d, 0x00, 0x00, 0x00, 0x03, 0x00, 0x00, 0x00,
  0x1c, 0x00, 0x00, 0x00, 0x04, 0x00, 0x00, 0x00, 0x05, 0x00, 0x00, 0x00,
  0x00, 0x00, 0x0e, 0x00, 0x1a, 0x00, 0x14, 0x00, 0x10, 0x00, 0x0c, 0x00,
  0x0b, 0x00, 0x04, 0x00, 0x0e, 0x00, 0x00, 0x00, 0x24, 0x00, 0x00, 0x00,
  0x00, 0x00, 0x00, 0x20, 0x24, 0x00, 0x00, 0x00, 0x28, 0x00, 0x00, 0x00,
  0x01, 0x00, 0x00, 0x00, 0x00, 0x00, 0x0e, 0x00, 0x08, 0x00, 0x00, 0x00,
  0x00, 0x00, 0x00, 0x00, 0x00, 0x00, 0x04, 0x00, 0x0e, 0x00, 0x00, 0x00,
  0x01, 0x00, 0x00, 0x00, 0x01, 0x00, 0x00, 0x00, 0x1c, 0x00, 0x00, 0x00,
  0x04, 0x00, 0x00, 0x00, 0x1b, 0x00, 0x00, 0x00, 0x02, 0x00, 0x00, 0x00,
  0x03, 0x00, 0x00, 0x00, 0x03, 0x00, 0x00, 0x00, 0x00, 0x00, 0x0e, 0x00,
  0x16, 0x00, 0x00, 0x00, 0x10, 0x00, 0x0c, 0x00, 0x0b, 0x00, 0x04, 0x00,
  0x0e, 0x00, 0x00, 0x00, 0x18, 0x00, 0x00, 0x00, 0x00, 0x00, 0x00, 0x37,
  0x18, 0x00, 0x00, 0x00, 0x1c, 0x00, 0x00, 0x00, 0x00, 0x00, 0x06, 0x00,
  0x08, 0x00, 0x07, 0x00, 0x06, 0x00, 0x00, 0x00, 0x00, 0x00, 0x00, 0x02,
  0x01, 0x00, 0x00, 0x00, 0x1b, 0x00, 0x00, 0x00, 0x01, 0x00, 0x00, 0x00,
  0x00, 0x00, 0x00, 0x00, 0x02, 0x00, 0x00, 0x00, 0x60, 0x00, 0x00, 0x00,
  0x5f, 0x00, 0x00, 0x00, 0x02, 0x00, 0x00, 0x00, 0x00, 0x00, 0x00, 0x00,
  0x01, 0x00, 0x00, 0x00, 0x61, 0x00, 0x00, 0x00, 0x8c, 0x40, 0x00, 0x00,
  0x00, 0x40, 0x00, 0x00, 0xbc, 0x3f, 0x00, 0x00, 0x64, 0x3f, 0x00, 0x00,
  0x28, 0x3f, 0x00, 0x00, 0xec, 0x3e, 0x00, 0x00, 0xb0, 0x3e, 0x00, 0x00,
  0x70, 0x3e, 0x00, 0x00, 0x30, 0x3e, 0x00, 0x00, 0xf4, 0x3d, 0x00, 0x00,
  0xb4, 0x3d, 0x00, 0x00, 0x74, 0x3d, 0x00, 0x00, 0x30, 0x3d, 0x00, 0x00,
  0xec, 0x3c, 0x00, 0x00, 0xa8, 0x3c, 0x00, 0x00, 0x64, 0x3c, 0x00, 0x00,
  0x20, 0x3c, 0x00, 0x00, 0xe0, 0x3b, 0x00, 0x00, 0x64, 0x3b, 0x00, 0x00,
  0x48, 0x37, 0x00, 0x00, 0x2c, 0x33, 0x00, 0x00, 0xc8, 0x32, 0x00, 0x00,
  0xac, 0x2e, 0x00, 0x00, 0x90, 0x2a, 0x00, 0x00, 0x54, 0x28, 0x00, 0x00,
  0xe8, 0x27, 0x00, 0x00, 0x6c, 0x27, 0x00, 0x00, 0x1c, 0x27, 0x00, 0x00,
  0xc8, 0x26, 0x00, 0x00, 0x70, 0x26, 0x00, 0x00, 0xe8, 0x25, 0x00, 0x00,
  0x48, 0x25, 0x00, 0x00, 0x6c, 0x24, 0x00, 0x00, 0xbc, 0x23, 0x00, 0x00,
  0x14, 0x23, 0x00, 0x00, 0x78, 0x22, 0x00, 0x00, 0xe0, 0x21, 0x00, 0x00,
  0x90, 0x21, 0x00, 0x00, 0x3c, 0x21, 0x00, 0x00, 0xe4, 0x20, 0x00, 0x00,
  0x64, 0x20, 0x00, 0x00, 0xe8, 0x1f, 0x00, 0x00, 0x98, 0x1f, 0x00, 0x00,
  0x44, 0x1f, 0x00, 0x00, 0xec, 0x1e, 0x00, 0x00, 0x5c, 0x1e, 0x00, 0x00,
  0xd0, 0x1d, 0x00, 0x00, 0x50, 0x1d, 0x00, 0x00, 0xc4, 0x1c, 0x00, 0x00,
  0x48, 0x1c, 0x00, 0x00, 0xbc, 0x1b, 0x00, 0x00, 0x38, 0x1b, 0x00, 0x00,
  0xac, 0x1a, 0x00, 0x00, 0xb0, 0x19, 0x00, 0x00, 0xb4, 0x18, 0x00, 0x00,
  0xb8, 0x17, 0x00, 0x00, 0xbc, 0x16, 0x00, 0x00, 0x30, 0x16, 0x00, 0x00,
  0xa4, 0x15, 0x00, 0x00, 0x18, 0x15, 0x00, 0x00, 0x8c, 0x14, 0x00, 0x00,
  0x00, 0x14, 0x00, 0x00, 0x7c, 0x13, 0x00, 0x00, 0xf8, 0x12, 0x00, 0x00,
  0x6c, 0x12, 0x00, 0x00, 0xe0, 0x11, 0x00, 0x00, 0x54, 0x11, 0x00, 0x00,
  0xcc, 0x10, 0x00, 0x00, 0x4c, 0x10, 0x00, 0x00, 0xc0, 0x0f, 0x00, 0x00,
  0x3c, 0x0f, 0x00, 0x00, 0xb0, 0x0e, 0x00, 0x00, 0x24, 0x0e, 0x00, 0x00,
  0x98, 0x0d, 0x00, 0x00, 0x94, 0x0c, 0x00, 0x00, 0x90, 0x0b, 0x00, 0x00,
  0x8c, 0x0a, 0x00, 0x00, 0x88, 0x09, 0x00, 0x00, 0xfc, 0x08, 0x00, 0x00,
  0x70, 0x08, 0x00, 0x00, 0xe4, 0x07, 0x00, 0x00, 0x58, 0x07, 0x00, 0x00,
  0xcc, 0x06, 0x00, 0x00, 0x48, 0x06, 0x00, 0x00, 0xbc, 0x05, 0x00, 0x00,
  0x30, 0x05, 0x00, 0x00, 0xa4, 0x04, 0x00, 0x00, 0x18, 0x04, 0x00, 0x00,
  0x90, 0x03, 0x00, 0x00, 0x04, 0x03, 0x00, 0x00, 0xb4, 0x02, 0x00, 0x00,
  0x60, 0x02, 0x00, 0x00, 0x08, 0x02, 0x00, 0x00, 0x80, 0x01, 0x00, 0x00,
  0xfc, 0x00, 0x00, 0x00, 0x80, 0x00, 0x00, 0x00, 0x04, 0x00, 0x00, 0x00,
  0x0e, 0xc1, 0xff, 0xff, 0x00, 0x00, 0x00, 0x01, 0x18, 0x00, 0x00, 0x00,
  0x20, 0x00, 0x00, 0x00, 0x3c, 0x00, 0x00, 0x00, 0x61, 0x00, 0x00, 0x00,
  0x00, 0x00, 0x00, 0x09, 0x50, 0x00, 0x00, 0x00, 0x02, 0x00, 0x00, 0x00,
  0xff, 0xff, 0xff, 0xff, 0x50, 0x00, 0x00, 0x00, 0xf4, 0xc0, 0xff, 0xff,
  0x08, 0x00, 0x00, 0x00, 0x10, 0x00, 0x00, 0x00, 0x01, 0x00, 0x00, 0x00,
  0x14, 0x00, 0x00, 0x00, 0x00, 0x00, 0x00, 0x00, 0x01, 0x00, 0x00, 0x00,
  0xf8, 0x25, 0x71, 0x39, 0x1b, 0x00, 0x00, 0x00, 0x53, 0x74, 0x61, 0x74,
  0x65, 0x66, 0x75, 0x6c, 0x50, 0x61, 0x72, 0x74, 0x69, 0x74, 0x69, 0x6f,
  0x6e, 0x65, 0x64, 0x43, 0x61, 0x6c, 0x6c, 0x5f, 0x31, 0x3a, 0x31, 0x00,
  0x02, 0x00, 0x00, 0x00, 0x01, 0x00, 0x00, 0x00, 0x50, 0x00, 0x00, 0x00,
  0x86, 0xc1, 0xff, 0xff, 0x00, 0x00, 0x00, 0x01, 0x18, 0x00, 0x00, 0x00,
  0x20, 0x00, 0x00, 0x00, 0x3c, 0x00, 0x00, 0x00, 0x60, 0x00, 0x00, 0x00,
  0x00, 0x00, 0x00, 0x09, 0x50, 0x00, 0x00, 0x00, 0x02, 0x00, 0x00, 0x00,
  0xff, 0xff, 0xff, 0xff, 0x03, 0x00, 0x00, 0x00, 0x6c, 0xc1, 0xff, 0xff,
  0x08, 0x00, 0x00, 0x00, 0x10, 0x00, 0x00, 0x00, 0x01, 0x00, 0x00, 0x00,
  0x80, 0xff, 0xff, 0xff, 0xff, 0xff, 0xff, 0xff, 0x01, 0x00, 0x00, 0x00,
  0x00, 0x00, 0x80, 0x3b, 0x1b, 0x00, 0x00, 0x00, 0x53, 0x74, 0x61, 0x74,
  0x65, 0x66, 0x75, 0x6c, 0x50, 0x61, 0x72, 0x74, 0x69, 0x74, 0x69, 0x6f,
  0x6e, 0x65, 0x64, 0x43, 0x61, 0x6c, 0x6c, 0x5f, 0x31, 0x3a, 0x30, 0x00,
  0x02, 0x00, 0x00, 0x00, 0x01, 0x00, 0x00, 0x00, 0x03, 0x00, 0x00, 0x00,
  0xfe, 0xc1, 0xff, 0xff, 0x00, 0x00, 0x00, 0x01, 0x18, 0x00, 0x00, 0x00,
  0x20, 0x00, 0x00, 0x00, 0x40, 0x00, 0x00, 0x00, 0x5f, 0x00, 0x00, 0x00,
  0x00, 0x00, 0x00, 0x09, 0x58, 0x00, 0x00, 0x00, 0x02, 0x00, 0x00, 0x00,
  0xff, 0xff, 0xff, 0xff, 0x03, 0x00, 0x00, 0x00, 0xe4, 0xc1, 0xff, 0xff,
  0x08, 0x00, 0x00, 0x00, 0x14, 0x00, 0x00, 0x00, 0x01, 0x00, 0x00, 0x00,
  0x64, 0x00, 0x00, 0x00, 0x00, 0x00, 0x00, 0x00, 0x00, 0x00, 0x00, 0x00,
  0x01, 0x00, 0x00, 0x00, 0x32, 0x01, 0x37, 0x37, 0x1d, 0x00, 0x00, 0x00,
  0x66, 0x75, 0x6e, 0x63, 0x74, 0x69, 0x6f, 0x6e, 0x61, 0x6c, 0x5f, 0x31,
  0x2f, 0x64, 0x65, 0x6e, 0x73, 0x65, 0x5f, 0x31, 0x5f, 0x32, 0x2f, 0x4d,
  0x61, 0x74, 0x4d, 0x75, 0x6c, 0x00, 0x00, 0x00, 0x02, 0x00, 0x00, 0x00,
  0x01, 0x00, 0x00, 0x00, 0x03, 0x00, 0x00, 0x00, 0x7e, 0xc2, 0xff, 0xff,
  0x00, 0x00, 0x00, 0x01, 0x18, 0x00, 0x00, 0x00, 0x20, 0x00, 0x00, 0x00,
  0x40, 0x00, 0x00, 0x00, 0x5e, 0x00, 0x00, 0x00, 0x00, 0x00, 0x00, 0x09,
  0x5c, 0x00, 0x00, 0x00, 0x02, 0x00, 0x00, 0x00, 0xff, 0xff, 0xff, 0xff,
  0x14, 0x00, 0x00, 0x00, 0x64, 0xc2, 0xff, 0xff, 0x08, 0x00, 0x00, 0x00,
  0x14, 0x00, 0x00, 0x00, 0x01, 0x00, 0x00, 0x00, 0x14, 0x00, 0x00, 0x00,
  0x00, 0x00, 0x00, 0x00, 0x00, 0x00, 0x00, 0x00, 0x01, 0x00, 0x00, 0x00,
  0xf8, 0x25, 0x71, 0x39, 0x20, 0x00, 0x00, 0x00, 0x66, 0x75, 0x6e, 0x63,
  0x74, 0x69, 0x6f, 0x6e, 0x61, 0x6c, 0x5f, 0x31, 0x2f, 0x66, 0x6c, 0x61,
  0x74, 0x74, 0x65, 0x6e, 0x5f, 0x31, 0x5f, 0x32, 0x2f, 0x52, 0x65, 0x73,
  0x68, 0x61, 0x70, 0x65, 0x00, 0x00, 0x00, 0x00, 0x02, 0x00, 0x00, 0x00,
  0x01, 0x00, 0x00, 0x00, 0x14, 0x00, 0x00, 0x00, 0xca, 0xc3, 0xff, 0xff,
  0x00, 0x00, 0x00, 0x01, 0x14, 0x00, 0x00, 0x00, 0x14, 0x00, 0x00, 0x00,
  0x5d, 0x00, 0x00, 0x00, 0x00, 0x00, 0x00, 0x02, 0x34, 0x00, 0x00, 0x00,
  0xb4, 0xc3, 0xff, 0xff, 0x26, 0x00, 0x00, 0x00, 0x66, 0x75, 0x6e, 0x63,
  0x74, 0x69, 0x6f, 0x6e, 0x61, 0x6c, 0x5f, 0x31, 0x2f, 0x66, 0x6c, 0x61,
  0x74, 0x74, 0x65, 0x6e, 0x5f, 0x31, 0x5f, 0x32, 0x2f, 0x52, 0x65, 0x73,
  0x68, 0x61, 0x70, 0x65, 0x2f, 0x73, 0x68, 0x61, 0x70, 0x65, 0x00, 0x00,
  0x01, 0x00, 0x00, 0x00, 0x02, 0x00, 0x00, 0x00, 0x1e, 0xc4, 0xff, 0xff,
  0x00, 0x00, 0x00, 0x01, 0x14, 0x00, 0x00, 0x00, 0x14, 0x00, 0x00, 0x00,
  0x5c, 0x00, 0x00, 0x00, 0x00, 0x00, 0x00, 0x02, 0x34, 0x00, 0x00, 0x00,
  0x08, 0xc4, 0xff, 0xff, 0x26, 0x00, 0x00, 0x00, 0x66, 0x75, 0x6e, 0x63,
  0x74, 0x69, 0x6f, 0x6e, 0x61, 0x6c, 0x5f, 0x31, 0x2f, 0x66, 0x6c, 0x61,
  0x74, 0x74, 0x65, 0x6e, 0x5f, 0x31, 0x5f, 0x32, 0x2f, 0x73, 0x74, 0x72,
  0x69, 0x64, 0x65, 0x64, 0x5f, 0x73, 0x6c, 0x69, 0x63, 0x65, 0x00, 0x00,
  0x00, 0x00, 0x00, 0x00, 0x6e, 0xc4, 0xff, 0xff, 0x00, 0x00, 0x00, 0x01,
  0x14, 0x00, 0x00, 0x00, 0x14, 0x00, 0x00, 0x00, 0x5b, 0x00, 0x00, 0x00,
  0x00, 0x00, 0x00, 0x02, 0x2c, 0x00, 0x00, 0x00, 0x58, 0xc4, 0xff, 0xff,
  0x1e, 0x00, 0x00, 0x00, 0x66, 0x75, 0x6e, 0x63, 0x74, 0x69, 0x6f, 0x6e,
  0x61, 0x6c, 0x5f, 0x31, 0x2f, 0x66, 0x6c, 0x61, 0x74, 0x74, 0x65, 0x6e,
  0x5f, 0x31, 0x5f, 0x32, 0x2f, 0x53, 0x68, 0x61, 0x70, 0x65, 0x00, 0x00,
  0x01, 0x00, 0x00, 0x00, 0x03, 0x00, 0x00, 0x00, 0xf2, 0xc3, 0xff, 0xff,
  0x00, 0x00, 0x00, 0x01, 0x18, 0x00, 0x00, 0x00, 0x24, 0x00, 0x00, 0x00,
  0x40, 0x00, 0x00, 0x00, 0x5a, 0x00, 0x00, 0x00, 0x00, 0x00, 0x00, 0x09,
  0x5c, 0x00, 0x00, 0x00, 0x03, 0x00, 0x00, 0x00, 0xff, 0xff, 0xff, 0xff,
  0x01, 0x00, 0x00, 0x00, 0x14, 0x00, 0x00, 0x00, 0xdc, 0xc3, 0xff, 0xff,
  0x08, 0x00, 0x00, 0x00, 0x10, 0x00, 0x00, 0x00, 0x01, 0x00, 0x00, 0x00,
  0x14, 0x00, 0x00, 0x00, 0x00, 0x00, 0x00, 0x00, 0x01, 0x00, 0x00, 0x00,
  0xf8, 0x25, 0x71, 0x39, 0x21, 0x00, 0x00, 0x00, 0x66, 0x75, 0x6e, 0x63,
  0x74, 0x69, 0x6f, 0x6e, 0x61, 0x6c, 0x5f, 0x31, 0x2f, 0x6c, 0x73, 0x74,
  0x6d, 0x5f, 0x31, 0x5f, 0x32, 0x2f, 0x74, 0x72, 0x61, 0x6e, 0x73, 0x70,
  0x6f, 0x73, 0x65, 0x5f, 0x31, 0x00, 0x00, 0x00, 0x03, 0x00, 0x00, 0x00,
  0x01, 0x00, 0x00, 0x00, 0x01, 0x00, 0x00, 0x00, 0x14, 0x00, 0x00, 0x00,
  0x7a, 0xc4, 0xff, 0xff, 0x00, 0x00, 0x00, 0x01, 0x18, 0x00, 0x00, 0x00,
  0x24, 0x00, 0x00, 0x00, 0x44, 0x00, 0x00, 0x00, 0x59, 0x00, 0x00, 0x00,
  0x00, 0x00, 0x00, 0x09, 0x58, 0x00, 0x00, 0x00, 0x03, 0x00, 0x00, 0x00,
  0x01, 0x00, 0x00, 0x00, 0xff, 0xff, 0xff, 0xff, 0x14, 0x00, 0x00, 0x00,
  0x64, 0xc4, 0xff, 0xff, 0x08, 0x00, 0x00, 0x00, 0x14, 0x00, 0x00, 0x00,
  0x01, 0x00, 0x00, 0x00, 0x14, 0x00, 0x00, 0x00, 0x00, 0x00, 0x00, 0x00,
  0x00, 0x00, 0x00, 0x00, 0x01, 0x00, 0x00, 0x00, 0xf8, 0x25, 0x71, 0x39,
  0x1b, 0x00, 0x00, 0x00, 0x66, 0x75, 0x6e, 0x63, 0x74, 0x69, 0x6f, 0x6e,
  0x61, 0x6c, 0x5f, 0x31, 0x2f, 0x6c, 0x73, 0x74, 0x6d, 0x5f, 0x31, 0x5f,
  0x32, 0x2f, 0x73, 0x74, 0x61, 0x63, 0x6b, 0x00, 0x03, 0x00, 0x00, 0x00,
  0x01, 0x00, 0x00, 0x00, 0x01, 0x00, 0x00, 0x00, 0x14, 0x00, 0x00, 0x00,
  0xfe, 0xc4, 0xff, 0xff, 0x00, 0x00, 0x00, 0x01, 0x18, 0x00, 0x00, 0x00,
  0x20, 0x00, 0x00, 0x00, 0x40, 0x00, 0x00, 0x00, 0x58, 0x00, 0x00, 0x00,
  0x00, 0x00, 0x00, 0x09, 0x60, 0x00, 0x00, 0x00, 0x02, 0x00, 0x00, 0x00,
  0xff, 0xff, 0xff, 0xff, 0x14, 0x00, 0x00, 0x00, 0xe4, 0xc4, 0xff, 0xff,
  0x08, 0x00, 0x00, 0x00, 0x14, 0x00, 0x00, 0x00, 0x01, 0x00, 0x00, 0x00,
  0x14, 0x00, 0x00, 0x00, 0x00, 0x00, 0x00, 0x00, 0x00, 0x00, 0x00, 0x00,
  0x01, 0x00, 0x00, 0x00, 0xf8, 0x25, 0x71, 0x39, 0x27, 0x00, 0x00, 0x00,
  0x66, 0x75, 0x6e, 0x63, 0x74, 0x69, 0x6f, 0x6e, 0x61, 0x6c, 0x5f, 0x31,
  0x2f, 0x6c, 0x73, 0x74, 0x6d, 0x5f, 0x31, 0x5f, 0x32, 0x2f, 0x6c, 0x73,
  0x74, 0x6d, 0x5f, 0x63, 0x65, 0x6c, 0x6c, 0x5f, 0x31, 0x2f, 0x6d, 0x75,
  0x6c, 0x5f, 0x32, 0x00, 0x02, 0x00, 0x00, 0x00, 0x01, 0x00, 0x00, 0x00,
  0x14, 0x00, 0x00, 0x00, 0x86, 0xc5, 0xff, 0xff, 0x00, 0x00, 0x00, 0x01,
  0x18, 0x00, 0x00, 0x00, 0x20, 0x00, 0x00, 0x00, 0x3c, 0x00, 0x00, 0x00,
  0x57, 0x00, 0x00, 0x00, 0x00, 0x00, 0x00, 0x09, 0x60, 0x00, 0x00, 0x00,
  0x02, 0x00, 0x00, 0x00, 0xff, 0xff, 0xff, 0xff, 0x14, 0x00, 0x00, 0x00,
  0x6c, 0xc5, 0xff, 0xff, 0x08, 0x00, 0x00, 0x00, 0x10, 0x00, 0x00, 0x00,
  0x01, 0x00, 0x00, 0x00, 0x00, 0x00, 0x00, 0x00, 0x00, 0x00, 0x00, 0x00,
  0x01, 0x00, 0x00, 0x00, 0x00, 0x00, 0x00, 0x3c, 0x28, 0x00, 0x00, 0x00,
  0x66, 0x75, 0x6e, 0x63, 0x74, 0x69, 0x6f, 0x6e, 0x61, 0x6c, 0x5f, 0x31,
  0x2f, 0x6c, 0x73, 0x74, 0x6d, 0x5f, 0x31, 0x5f, 0x32, 0x2f, 0x6c, 0x73,
  0x74, 0x6d, 0x5f, 0x63, 0x65, 0x6c, 0x6c, 0x5f, 0x31, 0x2f, 0x54, 0x61,
  0x6e, 0x68, 0x5f, 0x31, 0x00, 0x00, 0x00, 0x00, 0x02, 0x00, 0x00, 0x00,
  0x01, 0x00, 0x00, 0x00, 0x14, 0x00, 0x00, 0x00, 0x0e, 0xc6, 0xff, 0xff,
  0x00, 0x00, 0x00, 0x01, 0x18, 0x00, 0x00, 0x00, 0x20, 0x00, 0x00, 0x00,
  0x40, 0x00, 0x00, 0x00, 0x56, 0x00, 0x00, 0x00, 0x00, 0x00, 0x00, 0x09,
  0x60, 0x00, 0x00, 0x00, 0x02, 0x00, 0x00, 0x00, 0xff, 0xff, 0xff, 0xff,
  0x14, 0x00, 0x00, 0x00, 0xf4, 0xc5, 0xff, 0xff, 0x08, 0x00, 0x00, 0x00,
  0x14, 0x00, 0x00, 0x00, 0x01, 0x00, 0x00, 0x00, 0x14, 0x00, 0x00, 0x00,
  0x00, 0x00, 0x00, 0x00, 0x00, 0x00, 0x00, 0x00, 0x01, 0x00, 0x00, 0x00,
